fad8ffeaf5180b1409
01e403e6ef0d000f09
03f7fffb0000fa00f2
000000000000000000
000000000000000000
000000000000000000
000000000000000000
000000000000000000
e81712ea050d33f4e4
11fb34ee1ecb33da09
0fd7e1193b0db51b34
000000000000000000
000000000000000000
000000000000000000
000000000000000000
000000000000000000
000302020505010502
020402040503040601
fafcfdf6f3f5fefcfb
000000000000000000
000000000000000000
000000000000000000
000000000000000000
000000000000000000
080d0a0a1310ff0605
f9f4f6f9f1f201fbfb
fefefffefcfd00ff00
000000000000000000
000000000000000000
000000000000000000
000000000000000000
000000000000000000
21362804000dd7bed6
1a3b22041006debed2
132113040a0aecd0e7
000000000000000000
000000000000000000
000000000000000000
000000000000000000
000000000000000000
97ee2aa7eb5ab5117f
200bff35fff025efc1
4c18da410aaf20f5b0
000000000000000000
000000000000000000
000000000000000000
000000000000000000
000000000000000000
d0d6dcd819fa0d5a2b
d1e0e1dd24fb054f19
eeeaeef40cf60e2610
000000000000000000
000000000000000000
000000000000000000
000000000000000000
000000000000000000
fe0605fad4f608e4f6
f906fbffdcff08e808
f408fe01e1fc0af805
000000000000000000
000000000000000000
000000000000000000
000000000000000000
000000000000000000
