fdf0e80c0a0efffa02
f1f8edf5fff8000d02
d7d09b1c25f02a3c12
d5cc81314cff124019
070a0b0e0e05130a0a
1308f6111c00f91b00
0d041207081308041a
f9f707090110fbf800
04020202fe0003ff01
fdfdfe0100000001fc
060c070f160f080e0a
01fbfe00f7fc03fcff
010100010101ff00ff
ff0301030100010402
fdfefeffffffff00ff
02fc01fdf7ff02fd03
de30034418cb0fcce9
1b15f815ffe3f7e9e9
edfbfafafefd100507
f3000005fff711ff05
0713f51cf6ee09e802
f3070f100bf803f3f8
d6f001e1fe14040f21
4219e51bd2f0e4ee06
11f9ee0507f9f8030f
ee1e14f4ed18fffdf8
04000702fd0202fbf6
03fd0103020405fdf4
20e4d53802c7201ceb
fd0bfbfaf90502f904
f0effae9e511fff704
151cf7e70312e8eb19
0dfff4fcedeb00f912
eae8f7eaee14f90728
0e110c0202f707f5e1
fefd030001ff0a03f1
29280c0e15d5eed0b0
fbe3f3f4f0010c141e
fffd0003effffdedfe
eee8eddad902153547
040501060603060505
0103fe030602040400
05f9f80d03ff05060b
f8eeeb1c1c0c0b1b17
fffb0000fcfefe00fe
ffff010807fa0104fc
fffdfffefcfe00fefe
01fe01fdf5fc00f9fd
04fdfa0304ff020302
020104030307020206
0401fd0402fc0806fd
0501fe01fdf90b06fd
fcfa0901fe08fef5fe
0501fbfbfbfafc0005
faf9fc01fdffefef06
02000301fe00fffc04
050702060100020000
ffff030100040a0102
fcfe09f5f3fc00f5ff
e6e0eee1d4e1eed9e0
fdfcfefcfefbfdfaff
fffcfdfafdfbfafafb
fffbfafefcfb000000
05030503fcff02f9fb
0209f8fdfdf60200fe
0104ed0408e1ff08f0
f3fafef7fdf2ebfbed
fe0af00206dffb09e7
082534d0ecebdaf3eb
f900fdfb01fef700ff
f3f8fef0fdfaeaf0f7
0b171ffd0f07fe100a
000100010101010200
0000ff01ffffff0000
010101010102000101
0000ffff0001000100
02fd03fcf5fe03fc03
00010001ff00000100
00ff0000ffff010101
ffeffaefd8ebf6e8f4
10edfdf0e100fcfcfc
f3efeee4190006f308
1e17054de3dafee2ea
053f0113caee01d7fc
edfe0908fe0103ff04
fe01fb07e3f70b02f6
06d904d51a02e90608
060b0116f0f4fced03
090bf7e9160100e6fb
f3daeaff10ca0a030d
07e2ff0219e61102f4
0626f2c7e807f4dc03
f50710faeffd16fdf8
0ce5e2f5e7110af4ec
e7391cc1d763f3cc0c
fc0e02f7fc09fff9fc
0deef8fdd2f1fcf716
03dffaf7d4f7011f18
f2fdf7f01407040aff
0be2f602e6fbf2f207
1604050f0106f8e8e8
f1f9f5e6edf8060e13
d7e5f0e5f32e2b3848
06f7fffcf40bfe0008
0100fe000202010201
0000ffff01ff000000
000100010201fe0201
ff00fffe00ff000100
0a1118ebccf3fed5e8
ff0100010402000201
010301010203000202
02080203090a0c0a04
f3f2fcf0f5f2efeff3
f6f3f1e4eee9e4eae7
0505070000fa0e0308
ececede4efe4dee7ea
fd00fdfe0403fc0406
11fbfffc030203fc07
08ff03fc03fa0b0705
fb0100fe0504fd0405
fffd00ff03040501fe
ff03feff02ff00ff03
000303000504ff0001
fefffffe0300000002
fffcf601fdf7fcfffb
010203030402010002
020202020106030402
fbfaf2fdfdf7fcfff4
