f5f3f3fc010103161a
f4f3f1fbf9fb101c1a
f9f8fdfff9fb090901
030408f7f6f70a00fc
020df8f9effa0cf20c
02fcfafffdfa030405
1a2922fc0406cfcac3
f6eff3160f16f6f9fc
feff07fff5fbfff5f9
fafd01f8f803fbfe03
fafd02f6ecf604f8fb
000a09f7f2f601f3f3
00feff000200fffffb
ff07f8f9010d021014
fbfb01fcfdfffdfefe
fffe05f9f200fef904
0309ecf4e51ffd10fa
fb05040200f3edfe0d
0503f908fefb0701fe
0303f80700f90b06fc
20f2def4cffce70d17
fff105fd0ffd01fc00
e204141102e808ebe4
fce2fbef11141908e5
fcfdfbfbfaf7fafaf9
04020602fd03050100
fefefffffdfffffe00
010102040104fffbfe
01000201ff06fc02fd
fe0502040101f9fafa
04070301fffc0006fd
f4f2f1f4efeff7f5f1
02fdfd0104fe000901
fffffdfbfefdfffefb
0100ff01fffe0001ff
0000ff000000000000
fefafffe0001010302
ff020204030100fcfc
0301fe0500fd01fdff
01ff01030401fe0202
03f21204da170a0bfd
0a11f6ed1c03fafc10
030afbfc06fdf20601
040bfafafffcf80501
cf1effc5ef250acb29
000ff803f10e05fb04
ede3f1f3eab70c0ee2
fafb180ecb16040eee
05fc0eeef515eaf31e
0805f1040af40a07fd
fbfa0105fc040d0303
02f9fa0af5fa130000
f6f7f7f6f8f5f5f9f8
04fc0200f7fe05fe02
faf8f4fefbf6fcfcf8
e00519d70f1bd8fc16
09f8f9fef1f922fae0
f9dfe623e5d23c25fc
09030afb020ce7f001
0ef90a01f90feaf204
f21a16ebfb11f0df01
07dffe14fae5061a00
020b11e3f80ae8eeec
f2d2d628e3d83c39ff
0308fe0806f3f4fdee
08ff0505fbfef8e5fa
d2cbcdfae4fc3f5853
03ff0afaf60409e7f1
0202fdfbf6f7030507
d7e4d4fc0208fc1408
f1fdf6edfef8fefafd
fdf9f7fffcfe0a040a
00020001ff00020301
00fe010101ffff0100
030201040402030402
010000ff00ff000000
09feff0d1110030f0d
000200ff0201ff0100
02000202ff01020202
fefcfb080d0b000b09
08eefaece3ebf0f8fc
fdd50c174cf9fdcbf3
0318e4fd8d29fd1c11
160ae9cf87e209230f
0a0801fcf901fffefe
1400ececf22c1800ed
f4e82d0c3def14cc03
02fe07fcff03000206
ff0001fffafffdfbf8
02040501ff07fffe02
fdfcff090208fffeff
030302020002fe03fe
fffeff01fdff00fdfc
fffeff01fdfffe01fe
fdfcff00fcfe0a0801
00000103ff02030001
fdfbff02ff00fd01ff
0001ff060203050304
01ff02030005040b01
020501ff0a06fe0708
030604fdfefefefdfd
ff03fffe02fcfe03ff
0307ff050d02fdfe01
020303fefffffdfdfd
060be21df425f1f30a
de23f5f819f409bd11
db3fedecec3004c72e
16c00ee52ef7ff06eb
0200f3fa0307fbfa0a
f5ecf207cceb01f6ed
42b60c1c0fdce450cb
fb11f2f7010605f907
fefc09f7e8ec02f3ef
08fe01fff1f00b090a
0a080a05fe0a08020d
02ceecf6819306c8c9
0907f50706f20503f6
0a050a09000c0e0107
0603100bf80a0eff06
060406fefd02f8fd05
f4e00a0ee4e41026fe
00d1f608ede10700e3
f1e8ea27f4df1c0d05
02d7fd0ad2d60f2afb
f80b070308fce00502
0004061af8f31cfc0a
f8efed2de7ec141a12
f5eefb1bf3e90f18fd
