fb00f3f6f2f1141d0a
1a1717f5f9fbfefdf7
090907f9f2f4030004
0c0c0afcf9f9fbfdf9
15171dc4c8d3252a17
04fe060401fffffe01
fad9ef0eff1ae3d6e1
d9dadd0b130816191c
0efc0106f2ff06e700
00ebed04f2fa0ffdff
05f9020afc0308fbff
0b05020800fc0303f9
08fd140c0516090a12
090afc040802010a05
f5f2f000fbf404020d
0afefc07f6f40bfefb
01f908f7f817fbfb0f
fe090e01130ff8f5ed
01f9f401f6f0060603
fffdf40000eb0508fe
05fdf90bcebe04060a
f90503fd061afcf7f1
fae6f6f3f5fefef800
f10306f7fd08f8fafc
02f1ecfbf5f7070f13
110c090600faeee7ed
00fefffefd00050302
0f070bfdfafff9fcfb
ece6fcf7fafff2e8f7
0504070400fc01fd01
11140b05e2f9170a15
d6dddcfe0b09192123
e3edfdf0231ff81109
020907fdf8f6fcf6f8
1000fe02f0f705fd05
1e0a0009ebea06f6fd
f7fbfcf9f403030109
fdfcfefa02080002ff
fc09fafefdf504fdfd
e70709081c0b0407f8
050e06fa101aebe6f7
eef602ff010709090c
00ff00f7fa01010403
0301f6f5f90305040c
0f0cf80ef0020f1620
060908f7ebf5030001
fccd030ceef501ebf4
26291ff40d0fd5cad6
0700fd010402030d0d
060602f9fafafafbf9
050408060607120c0c
ddd8ded0cbcce2d9d3
fef4fb050907ff03ff
f1f10204fb06f8fd04
050bffff0704f900fb
fbfb00f3f5fc020208
fefc15f1eb0cf6f10b
f5f30cf3ef0cf9f90f
01fcf704fff80a04fc
ff01fd0102fc0403fb
fa04fd08fbef0a02f4
f3fd14eff712f2f816
0cfafe0dfa0902fc04
e2f828e3f62de1f824
06ff09fdebee000402
01ef0af8dcf30cf00a
121b05b2a9a514321c
fde705ffe70b0ce504
050709f5f3fc000101
001109fbfef602f7f9
e5e5d538522ed0e5d7
02fe02f7f4fa050d08
050c09020304060d03
040c1201fbf80a0711
13c6ec08cfe308e2ed
0f0e0efe0100040f15
faeefe02f70c02f910
15c2b411c0b90bd3cf
0bcfe406cde506d8e9
01fdfb000002ff0405
f0f501ff190600f0e9
f9f707f6fa0efae8f3
f52513fb0d01f502f0
f71c030319fdf9e9e4
fd0707fefc0200f2ef
f50811f7021afd0106
ef0109f5394ef4fbf8
f9020803050a01f5f0
090405f7f902050701
03090902f3fb04fd07
f3e3fcc28ed0efd3f1
05f7fbf9f103f7050a
0c0c0f040100f1f0ed
08effbffecf208e9fe
1819130804011b1012
0c0307fff8f80001fd
f6fafefd07fa00fcf9
fd1405100af902fdf8
02fb00ff060afc0003
f9fdfcfb01ff02fffe
fdfb02f9fafe06050a
fa02020008fefcfbfd
06140c0e0dfbf9faf8
f6fafcfd0504fe02ff
010a06f702030eff05
ff050605f0f9fefa04
10160ff106080b1318
fa130af7cefe0dfbf9
fef8f60601fb060a04
ff09fcf8daf501fdf4
f9f202cf81d8ffd7e4
050903fffefffefbfa
fa00f90003fd030500
090102ff00feffff07
03f403fef7f407ff07
00f80207fc02040001
1d100d0e0309f2f2ff
050202fbf9ff01fcfe
050f09f4eff20004fe
0e0b11f7eef7e6e4ec
eaf409edf31ff0f81b
edee18fbfb24e7f510
03fbfef7ebee05fdff
eaed18f1e91be3ee1a
02fafa08fdfd04fefe
08070001f7ed0b07f8
0902faf6eff1010006
fafc0afbfd0cf8fb08
