fc00f6f8f5f4101708
151312f7fafcfffef9
070705faf4f6020003
0a0a08fdfbfbfcfefb
101317d0d3dc1e2113
03fe050301ffffff01
fbe1f20bff15e9dee8
e1e2e4090f06111416
0bfd0105f4ff05ec00
00eff103f4fb0cfeff
04fa0208fc0206fc00
0804020600fd0202fb
06fd1009041208080e
0708fd030601010804
f7f5f300fcf703020b
08fefd06f8f609fefc
01fb07f9fa12fcfc0c
ff070b010f0cf9f7f1
01faf600f8f3050502
fffef60000ef0406fe
04fefa09d8cb030408
fb0402fd0515fdf9f4
fbebf8f6f7fefffa00
f40205f9fe06fafbfd
01f4f0fcf7f8060c0f
0e0a070500fcf2ecf1
00ff00fffe00040202
0c0509fdfb00fbfdfc
f0ebfdf9fbfff5edf9
0403050300fd01fd01
0d100904e8fa130810
dee4e3ff0907141a1c
e9f1fef31c19fa0d07
020706fdfaf8fdf8fa
0d00fe01f3f804fd04
18080007f0ee05f8fe
f9fcfdfaf602030107
fefdfefb02060002ff
fd07fbfffdf703fefe
ec05070617080306fa
040b05fc0c15f0ebf9
f1f802ff0106070809
00ff00f9fb01010302
0301f8f7fa0204040a
0c0afa0bf3010c1219
050806f9eff7020001
fcd8030af2f700f0f7
1e2019f70a0cded5de
0500fe010302020a0a
050502fbfbfbfbfcfa
0403060505050e0a09
e4e0e5dad6d6e8e1dc
fef7fc040705ff0200
f4f40203fc05f9fe03
0408ff000503fa00fc
fcfc00f6f7fc020206
fefd11f4ef0af8f409
f7f609f5f209fbfb0c
01fdf903fffa0803fd
ff00fe0102fd0303fc
fc03fd06fcf20801f6
f5fe10f3f90ef5f911
0afbfe0afb0801fd03
e8fa20e9f824e8f91d
050007feeff2000301
01f308fae3f609f408
0f1504c2bbb7102817
feec04ffec090aea03
040608f7f5fd000100
000e08fcfff802f9fa
eaeade2d4125daeadf
01fe02f8f7fb040a06
040907020203050a03
03090f00fcfa08060e
10d2f007d9e907e8f1
0c0b0bfe0100030c10
fbf1fe02f90901fb0d
11cec30ecdc709dcd9
08d9e905d7ea05e0ee
01fdfc000001ff0304
f3f70100140500f3ee
fbf806f8fb0bfbedf5
f71e0ffc0a01f702f3
f916020314fdfaeee9
fe0605fefd0100f5f3
f7070ef90215fd0105
f30108f72e3ef6fcf9
fa010603040801f7f3
070304f9fa01040601
03070701f5fc03fe05
f6e9fdcfa5daf2dcf4
04f9fcfaf403f90408
0a090c030100f4f3f1
06f2fcfff0f507eefe
13140f060301150c0e
090206fff9f90001fe
f8fbfefe05fb00fdfb
fd10040c08fa02fefa
02fc00ff0508fc0002
fbfefdfc01ff02fffe
fefc02fafbfe040408
fb02020006fefdfcfd
05100a0b0afcfafbfa
f8fbfdfe0403fe02ff
010805f901030b0004
ff040404f4fbfefb03
0d110cf40507090f13
fc0f08f9d8fe0bfcfb
fffaf80401fc050803
ff07fdfae1f701fef6
fbf501d99ae0ffdfea
040702fffefffefcfb
fb00fb0002fd020400
070102ff00feffff05
02f603fef8f605ff06
00fa0206fd02040001
170d0a0b0207f5f5ff
040202fcfbff01fdff
040c07f7f2f50004ff
0b090df9f2f9ebe9f0
eff607f1f619f3fa16
f1f213fcfc1cecf70d
02fcfff8eff104feff
eef114f4ee16e9f215
02fbfb07fefd03feff
07050001f9f10905fa
0701fbf8f3f4010005
fbfd08fcfd09fafc06
