fcec0dfc1cf8fa17f0
f8fb040afe060d07fd
05020705fa0301f902
00ff05ff00fd06fcfe
f6d729cde619dc28fa
f40207010ff708fefa
fa09f917cfe81dd401
f60e08f610eb17f4f6
07f7010dfcec0c0df2
f40913ef0508010207
ff00ffff0508f80309
ff01fffb0101f7080a
f1ea04e9e1fefce2f2
fffd09faef0304f5fb
fc01fcf3fbf9fe05fc
09ebec2309d81b17ee
f90605070bfefe01fc
f1fa00ed030bfb0d16
fdfbfb00fcff050605
f9f8ff02f80208050d
f10702fb0516f71101
0908fc07f2f604fe06
fff9ecfbeaf3f2f405
0c0ef80b09e702eee5
030d06e2f01b09f7f7
0afef9031801eaf30a
07fcf50602fdfe05fd
03faf30406fefb0606
0709f8db0b10f3e304
fd0500fef2ff000203
eddf17fbe6e10e0afc
032209e6d4130f03fa
fe06fbfd04fa0106fd
fbff02050609fbfafe
060404fcfcfd000002
04feff00fbff04ff02
f804f7f6fefdf6fefb
07fbfb08fbfc05fefc
07f3fb0bf6fe0dfcfa
0f0bf60a06f0ff01eb
0a01fc000607f9f7f7
010507f1f5f4fd0202
fdf9f801fefe0e0806
01f8fc05ff020701fe
eeecf3f6effbf6f4fd
030409eae9ee010100
f1eff7f7f0f203fbfc
060503f9f9fdfcf7fd
1be4fd29e6fb26e9f7
0cfcfa0bf8f712feff
f80003fa0107fa0106
fd05fdfa0504fb0204
fbec01dd0a04ed09ff
07fef505fcf60a08f4
c9f614d6ec13e1f4ff
17d20a1ed50a1fe208
ef0d0a12190311fef4
22170f1501fb0a02f8
2b1d0419fae3f8e0eb
1a1bff240cdbfcd2cc
fa01fd02f101fc04fe
1c18f904a8ede9021a
03050003f3fafe0706
061a04130ffa01f7ec
18fe01e308e7f70805
e21fdefe290027a30e
02c31ce4f810dc2ff8
00b41f041dece611fb
0ef802fffcfaf6ff08
05df00e71ee004edfd
f63ac91bf1e32eb811
02f60b00fffe0304fe
f9fe07f4e10001f8f1
e0ef0dc2a4faf9d1fe
fd0218f8c60519f7f3
02fb04040905f6f009
f90409f9000dfbfb04
01010b09f10509fd06
0c150513170510190c
ff020800f7ff0f01fb
0505f8fcd5e2feebf9
0dfbd9f281b1f5d20a
04040e08060b130802
04fd02f7f2010bfe06
f9ff08f50107f50107
05050a14f5fbfff611
14faf70ec3effbf20d
05030201fdfe02ff01
0a02e8fc0816f8fcfd
10f8f8dd0f1c00e5e7
2301eed73e2803e5f5
e0010d09c9d1fd1010
07fff8010507fef8ff
050fefebcb07f61305
da120235f8daff1013
0601f4fa0e11f9ee01
fdef00fef305f8f002
19cf0528c30317d2fc
fc0804f90709f60204
f0fffde60300ebfafd
fefd05fdfc05fefd05
fe0406e2f4f6fd0505
f70209fd0705ff0b02
03fdff04fe0002feff
090708d5cfdff6fefc
00fcffcecdcf05ff02
140c121d09100c010e
03fb03c7c7d1fd03fc
070403fcfcfc030606
0d010a0f0d150d020b
17111515111610070c
060307fafafdfbff03
04f1fa08f002fef2ff
f9fdf8e3fd02ebf8f7
04f9fcf5f7f910110a
1ff2ef37e1f411d7f2
ff0008fa0004fa0005
0cf90c00f809fe0307
010604f6f7fb090008
0af80309f50008f601
0600fefe0102020203
fafc03faf8fd040000
04fc01fe050300fafd
fef8fffa04fd05fd01
e9dd01d4f51e01261f
03fd0203ff0304ffff
05f80201010201fa01
f7fa02fa0a090508f3
