00000000e600000000
00000000f800000000
00000000e700000000
00000000d000000000
00000000d100000000
000000001500000000
000000002500000000
00000000c300000000
00000000fb00000000
00000000e900000000
00000000f300000000
000000003700000000
00000000cd00000000
00000000e800000000
00000000f300000000
00000000d000000000
00000000c800000000
00000000eb00000000
000000003b00000000
000000000d00000000
000000001900000000
000000001d00000000
00000000d600000000
00000000c400000000
000000001300000000
000000002500000000
00000000e900000000
00000000ef00000000
000000001b00000000
000000001800000000
00000000f300000000
00000000fd00000000
000000000600000000
000000002500000000
00000000fd00000000
00000000df00000000
00000000eb00000000
00000000fd00000000
00000000e800000000
00000000dc00000000
00000000ee00000000
00000000ef00000000
000000000d00000000
00000000c800000000
00000000e200000000
00000000e000000000
000000002100000000
00000000ec00000000
00000000e300000000
000000002700000000
00000000ff00000000
000000000200000000
00000000f100000000
00000000c600000000
00000000e700000000
00000000ee00000000
00000000c100000000
000000000c00000000
000000000c00000000
000000000f00000000
000000003d00000000
00000000c300000000
000000001700000000
000000002c00000000
00000000c300000000
00000000e900000000
000000002a00000000
000000003200000000
000000001800000000
00000000e200000000
00000000f400000000
000000003100000000
000000003100000000
00000000e000000000
000000003300000000
000000000e00000000
000000003900000000
00000000e700000000
00000000ea00000000
000000002200000000
00000000f400000000
00000000ca00000000
00000000c100000000
00000000d900000000
00000000c100000000
000000001b00000000
00000000db00000000
00000000fb00000000
000000002e00000000
000000001500000000
00000000ed00000000
000000003000000000
00000000fb00000000
000000001b00000000
000000002a00000000
00000000ee00000000
000000003c00000000
000000002900000000
000000000300000000
000000003e00000000
00000000c700000000
000000000300000000
000000000c00000000
000000001500000000
000000000d00000000
00000000f800000000
000000000900000000
000000002800000000
000000001000000000
00000000cc00000000
00000000dc00000000
000000002400000000
000000002700000000
00000000cf00000000
00000000db00000000
00000000e900000000
00000000c300000000
000000001d00000000
000000001f00000000
000000000100000000
00000000c500000000
00000000ed00000000
00000000e300000000
00000000c500000000
00000000f500000000
00000000ea00000000
00000000fb00000000
00000000f500000000
