f403f0f9e81deafa09
fd1803f9f8edfe0c1b
06f6f5031108e5fff4
000000000000000000
000000000000000000
000000000000000000
000000000000000000
000000000000000000
0d0919ef0ee813ea1c
00f914fefb1af8fcf9
20ec10f7201cff1dfd
000000000000000000
000000000000000000
000000000000000000
000000000000000000
000000000000000000
0611ef130620000bfd
fdf90109f8010deb0c
0ff31411f201edf3f0
000000000000000000
000000000000000000
000000000000000000
000000000000000000
000000000000000000
04ebe9e5fdf8fae5e5
ea16fafc1109efed09
ec1704ec100afb19e5
000000000000000000
000000000000000000
000000000000000000
000000000000000000
000000000000000000
e8ffe60e0afcf007ef
f5170cfa17f5e7f9ef
1b071bffe6ec1919ff
000000000000000000
000000000000000000
000000000000000000
000000000000000000
000000000000000000
161e05efed16071f05
f719fce90005161fea
1e00e90d0b1207f20e
000000000000000000
000000000000000000
000000000000000000
000000000000000000
000000000000000000
f100020efd0d0b1120
0105ed0119fdeb0f1f
18f418f004f51cecfe
000000000000000000
000000000000000000
000000000000000000
000000000000000000
000000000000000000
14fd11f105f91a2006
eefb0312161bf5ea01
09f81bfc101e13f401
000000000000000000
000000000000000000
000000000000000000
000000000000000000
000000000000000000
