e8ef12fc05ed04eb04
0b0718f40e0802e6fb
f1f007180613f30be8
000000000000000000
000000000000000000
000000000000000000
000000000000000000
000000000000000000
02f8120a09e3e305f5
1308ed1713091b1114
020a0719ee130011f0
000000000000000000
000000000000000000
000000000000000000
000000000000000000
000000000000000000
14e4f6fdf9ed1b0be8
05f31bfbfbe1f9e1ea
100df50e13f8fb0f09
000000000000000000
000000000000000000
000000000000000000
000000000000000000
000000000000000000
080bff05e60e0afb1b
0f0ef5ece3e7e309fc
e918ed0c010002e8ed
000000000000000000
000000000000000000
000000000000000000
000000000000000000
000000000000000000
11e2070304fcecf008
fde309fbef070e07e6
0cf7e3efecece1e1ff
000000000000000000
000000000000000000
000000000000000000
000000000000000000
000000000000000000
09151b0a15e5030de5
ff15f1f4efe3eb1514
181612e8e405fc0ff2
000000000000000000
000000000000000000
000000000000000000
000000000000000000
000000000000000000
0be60ffaf9f7ff19f1
f0e910e3e0011303f6
0d19e30305f3070508
000000000000000000
000000000000000000
000000000000000000
000000000000000000
000000000000000000
130f1a0efef9ef19ed
f60711e7f3f80dee0b
1b120b0ef6f2e8fded
000000000000000000
000000000000000000
000000000000000000
000000000000000000
000000000000000000
