3c991c7f9ad04f0cca
feae5c4687132cf6f6
daf04df5cb29f2fc10
000000000000000000
000000000000000000
000000000000000000
000000000000000000
000000000000000000
3115cc4cfdb830f2ce
2015d545fdbc29f8d5
1315dc2805d31702e6
000000000000000000
000000000000000000
000000000000000000
000000000000000000
000000000000000000
cec1d6ff00fc2b492d
d7c4db0101f9214726
e6d8e70506fe102a17
000000000000000000
000000000000000000
000000000000000000
000000000000000000
000000000000000000
dffd31c2ed48d4002a
e20026beef4ad0022e
e1051ecffa32de081c
000000000000000000
000000000000000000
000000000000000000
000000000000000000
000000000000000000
f8e3f8e9e2e9eceef0
07fe0905060a020f0d
110709100b0908110a
000000000000000000
000000000000000000
000000000000000000
000000000000000000
000000000000000000
45290ab6afe7131b0f
3e2406adabe71e2814
260d00c8cbf4171c13
000000000000000000
000000000000000000
000000000000000000
000000000000000000
000000000000000000
294d30feff0cd7b2c9
1b4321010212deb9d5
132f17010411e5cde0
000000000000000000
000000000000000000
000000000000000000
000000000000000000
000000000000000000
faf4ff01f6f8030601
f8eff7f9f0f2edf5f7
10120c13181101100e
000000000000000000
000000000000000000
000000000000000000
000000000000000000
000000000000000000
