f41524f1220c14230d
fe14ff0d2021110109
f917100c0d0a0904f0
000000000000000000
000000000000000000
000000000000000000
000000000000000000
000000000000000000
240e0cf10c220dfdea
011ff722ec09180807
ececf9ea03fc14ec20
000000000000000000
000000000000000000
000000000000000000
000000000000000000
000000000000000000
20f919060322edeeee
ebf71bf7ef080413eb
fbf2f4030504130d10
000000000000000000
000000000000000000
000000000000000000
000000000000000000
000000000000000000
1dfef81f18eaf8effb
f0eb0813060d010317
1c0508eff61a220525
000000000000000000
000000000000000000
000000000000000000
000000000000000000
000000000000000000
0ffaed09f2f51d0d08
1d231b061a0c15f410
1b1a09fa1cfdfa230c
000000000000000000
000000000000000000
000000000000000000
000000000000000000
000000000000000000
1200f0071cf701edec
0210fb07000d15230e
1df0f813f804160425
000000000000000000
000000000000000000
000000000000000000
000000000000000000
000000000000000000
1d25fc06eb15f614f4
091b0804f624fcee0d
17102403f9f0fd1e1e
000000000000000000
000000000000000000
000000000000000000
000000000000000000
000000000000000000
13eff6ff1b07161cf4
1318ea14eb0b100105
1810f80a241609ff14
000000000000000000
000000000000000000
000000000000000000
000000000000000000
000000000000000000
