def7e6050efafcf701
fe0f050910f0e90efd
eff4dc09e2f4efe216
000000000000000000
000000000000000000
000000000000000000
000000000000000000
000000000000000000
f314020bf101f3e607
f20ff1020adced0dfd
10ecf0e5e9f9ece5f4
000000000000000000
000000000000000000
000000000000000000
000000000000000000
000000000000000000
07fef008080ff813f2
10dff2ffed0602f4fd
0fe0e0e1f001fbfbdd
000000000000000000
000000000000000000
000000000000000000
000000000000000000
000000000000000000
ef04f213e7dedce90b
000bdff8f0f5100613
e7efdb0ee4dc11f6f6
000000000000000000
000000000000000000
000000000000000000
000000000000000000
000000000000000000
fb090ef4efdcee1609
e814e8fdece6f9eedf
dceaf3e1f10bf0f7f0
000000000000000000
000000000000000000
000000000000000000
000000000000000000
000000000000000000
0be00206f309ee0d06
fdff15e1f2fcf5e5e8
e2fe10f90401f8e4f7
000000000000000000
000000000000000000
000000000000000000
000000000000000000
000000000000000000
14e3e516e5e4f6e60d
db16f102e9f8e4feea
e4dce509f20c160fdc
000000000000000000
000000000000000000
000000000000000000
000000000000000000
000000000000000000
e2060ef8ed0df9e9e6
10df0edefff911fc04
07dd12e013f2031616
000000000000000000
000000000000000000
000000000000000000
000000000000000000
000000000000000000
