00000a6300000b1400000f94000003e0
000003c5000001a00000049500000176
0000015f00000074fffffcb80000021b
000008150000035b00000782fffff80d
00000164000004f8000006ac000005f1
00000107fffff9e6fffffd8a0000097e
fffffb53000001cefffffdd200000157
0000037f000005bc000000140000015b
fffffc1a00000165fffffc9b0000013c
0000091200000834000005f3fffff92c
fffffcb3000001bb0000028e000003a8
00000c39000001390000021100000162
ffffff740000022efffff983000001d2
000006f4fffffd48fffffe44000000d6
00000b55fffffcba0000029e00000060
000001a0fffffd5a000000f9fffff86f
fffffff0ffffffd6fffffd610000033b
00000454fffffa1cffffffdf0000008a
fffff542fffffe2d0000056700000217
fffffea6fffffdbd0000024b00000062
00000226fffffb4c000003eb00000115
ffffff610000009e00001471fffffe16
0000045000000120000001710000033f
000001dd000004310000083fffffff46
0000044f00000a0afffffa710000054d
0000049b00000272fffff3e200000323
000000a50000012200000a4c00000773
00000388fffffe86fffffccc0000055a
0000025e000003eeffffffd10000056b
000001d3000004cffffff0c3ffffff91
0000080700000437000002a9ffffff8d
000008e60000033c0000075300000054
