0205f3fef9fd01030d
050104fffdfffb00fe
fcfafa090f0b020405
020507fbfaf8090500
fefdfefffeff020706
0c08fa00f8f9fbfcfe
fdf8fdf6fafe010301
03ff01fdfef7000102
fd020001040006fd03
fc06fcff0b03080707
020606010301010100
0205feff07fe00fbfa
fe0104fb00ff020307
06000006fef9fafdff
fbff02f4fbfe0203fb
ff040301fdff040001
fe00fff8fcfdfccee2
0bf4fd0bf20103fe08
fe0500100e0005fffc
06fafef3fc09f80b01
030107fc0b0cfb1af2
fbf8faf0f3fef1eefb
f609fffe04f905fcf6
0b1601fcfa1405bc04
06050901000b040006
030a03fc0600030702
080e00020f07020c04
03ff02ff0303f8fd01
00f3fdfaedfa02f7ff
00faff02f4faf9f509
f6f2f5f3f0f0f5f0f5
fcfe03f7f80d00f2ff
01fef500050906070b
0203fefdfcfbfcf6f8
fefc01030305090303
040903fa040604ff01
020301fb0101fdfd04
090f020b140e080510
fe03fc03f8eefefafa
0206ff040a0704070c
0a010412070103010b
f801f1031afe0c1e05
ff03fe0a0e08101110
fbf0fefc16ff0014fd
ff0804050af4020505
f3070e031303010404
080c04060608090704
09f607ffe9ef02fb04
06f7e904ff19051006
fafa0ef4f810faff06
ff08fefd0104fd0104
f711090607ee03fef8
041b0afc07f1fcfef6
1138141713dc00e9f2
07ff04fa02090202f7
ffadf707fc0e042310
fe00ff00f900020102
010004010204020100
0100010101000000ff
1bf5f90fe1dc050f12
ff020200f700010401
02020301fb01fffe02
00fefffffd02000301
02fc0000fd00000201
02fe02f9f9fb030b04
f6f5f9fe0805060707
fffffb06ff01050303
fcfbfd010103040202
04070efdfd01030005
070707000402fcfafa
fcf9f9000001020000
f5f6f5fe01020d110e
fc02fdfb01fe0502fd
020102fbf8ff030005
0000f80703fa050607
0100fdfcfe0301ff05
020e03f2f4f405fa03
02fe00fffd00000304
ff03fefbfe0001fe01
ff03fdfe01fc00f8fb
f3f7faf90e0603150e
f70cfbfc0703fcf4fe
05fdfefefb060700ff
ff01000504ff011201
00fe07050709fe0703
fe0507fc0b02000706
fdfe01ff10fafe0b02
f2fcf8ef02050c2003
02fefef900fffdf9fe
fa11f9f61cf5f20ffa
07fefa03f8eefff6f4
fffc00fff9ff00f708
0a010700f5fd08fc05
000605040806000100
04fc0604f90506fb09
07ff04f2f9ecfc00ff
020203f90002f8fcfc
f7f4f902f9000e0915
fefefdf9fafd0301fd
010400010b0bfbff04
f8f9fa020404000304
f8f8f7f9faf401fafa
fb00feff0d0ffe0103
fbf8f2f8f8f707feff
11090507ff010601fe
15fa1809e20e0df106
0510fff70403010809
06020efcfaf801f1f6
f007f406210c0b260d
fbfefe020efd11180c
eefe02ed0b09040800
fd05fefef8f6fafcf2
051206070afc02fdf7
fdf7fdfc03ff010b03
01fe0200ffff000604
051100fe08fbfffdf8
000b00050e00070afe
f8f8f6fcfdf8fbfa04
fe1205ff05f501faf8
04290f0c0ad802fae5
010000020401fcfdfc
000300030501fbfdfc
fd00000102fb000001
ff06fc0106ff030000
0203ff050405020405
0200ff0101ff020202
f6ff0c03f3f3fafcee
fc02000103fffcfdfc
070706060d03f9fefe
0d0f08f7f1f2fcfafc
f7f300faf6fa02fefe
f9fd090a0304ff01fd
fd050d0a09000b0905
f8fbfdfffbf9fd0605
09080502fafcf9eff0
040605060307f7fbfa
fdfdfff901f6fdfef8
fdfafc070704f5f9f7
fffe03fffcfe050204
04010003030404fefc
fb01fcff010205fcf9
f9f9f7fc0bff070e0a
fdf7fb030002fc0101
01ffff0205ff010900
0cf702f5cdf7f6defc
f8f306e0ec0c010806
f8eefe0400021013f4
fe02000b06f808f807
00f6000b0bff0e16fe
fef9f4ecfdfde910ff
0eff0308f8f8fbfa03
05fdfeffee00f4080e
fa04f8010c010008fe
02f607fbf3fc010004
f9f9f7fffa0600f401
0c0a0c101a18141207
f7f4fdf8ebfdfcf1fc
f8eefce8deeeeeedfb
040c000b010702f3ff
fefb0103f703fefe03
0702fe08000502f9ff
13110cfc00f9fcf3ee
fa0206fd02fffefcfe
fb02f701fbf600f9fe
01f600f80401f6050a
fefaf6fefef800f8f9
fdfdf7010303fd01fa
0d06fa0705fdfbf4f9
01fe02f4e2fbf7fcf3
fcf8fdf6f3f6fafef1
fbf9fbedf102fffc04
02010dfdeb0ef4def5
04ff08fd0608f9e8ff
12ff0a02d2ff0dfa00
f7e9fdf3dcfdf3e0f6
010ef902edffeae2ec
ffe606f40b16f90504
1008f20ee4f700f410
f51b1f011f0ef9f4ef
fc0908f908fffdfcf5
060e06060e02fef8f7
0603f9faf5f20302fe
fae904f3f200fd0506
0504e702f3fcfe0205
01fdfe01fcff0002ff
fdfc00010002feffff
04010004fe00030302
00fffcfffffd010000
010100fe03fdfdfe03
f9ff02fe0003f4fafc
fcf8fbfff7f9f800ff
f51801fef6f60100fd
040404fa050001f5f8
0000fe090c0bf8f900
fd090b0c0b0bf8edf3
fc00fe010803fffffb
fef5f8030303fe0e01
fbfcfdf2edf0090a09
fdfbf8faf6f501fdfd
f8f8fbfffd02050504
0401ff00fefcfc00fc
fffb00ff040401fd02
fdfe04f8fa020100f9
fefffe0002fe050702
fff2fdfaf6f8071603
000cff040102f8dafc
02fffcfaf2f4fa0202
e0c7dbf701ee1b5320
fefc0502f90800d7f8
03050404edf9fe0815
0606041302fd18e902
0604fd0bfff7fcf200
01f9fb0107fc020d00
0605030311010000f6
04f500eceffbe60a0e
09010004f5f9ffffff
fb05fb0905fe06f4fe
f4fcfcfa0206fc1206
00f9fcf3f4fb01f9f9
fdf901fdf6fb09fe09
fffcff06fc01080203
01f9fff9f4f6faf6f8
f4f5fcf4edf8f7f2fa
f5e7f8f5e4fbfbf104
06f8fe0afefc090904
0d0b0efefbf405eee8
0406020b0d090504ff
01f8fc060400fe0505
fafbf906000003fe00
09090702060e080108
04fe01fe0502fdf9f8
040304040c09fd0405
f9f202f2dcf7eee8f6
11110c0fec090af906
02faf9faeff8feebf0
0502050bfcfa0de9f3
15fa13f0cef90409fe
ffed03fb00f8f1d7ef
fb0d040a0b040a110d
00f30000d9fa17080c
0ad9f00af00903ff07
060d02faf8fffdf905
fbf2f9fde408050102
fef3f9fbfb0a010207
fcfcffff030303fffe
f8ff07fcff02fefd07
0d0be7ffebe704fa05
0207f2fffaf8feff05
02fdfe04fcfa01ff00
0100fdfe08050102fe
03030101fdfd020001
f913120ff90305e506
0304030a0001040402
fe0300f9f8f8010101
000001feff03000403
fef7f701fefafb01fc
f8f3f4ede8f4070703
fbffff0301fd0700fe
0402010b0b16fffa00
000204fcfaf700fd03
0602fef8f5f0fb0500
f6f1fefaf6f60e0c0d
020204020101fefe00
fbfd03010506fd0001
fef801fbf5fcff0906
00f7fcfefb01fefb06
010304010400fe0800
00fffffcf7000205fc
020503030400fcfdff
000100f7f6ff070503
fcfd05fffcff06fbfb
fffffffdff07000007
f806040513040afaf8
fb00fa040d09fe0409
0e00fe03feffe71609
fa0009ecec14f9dbf5
f6f9fbe4f104f1100b
f4f9ff0f1ffdfc04f1
ff00fc0002010202fd
ebf3fef908fb081dfa
fbf9fff9f3ef09f805
f4f2f4f9f6f500faf9
04080e16100e0c0f08
04fc07fef9fc04fb0a
0401060a0f0b090103
000100fc03fffff5ff
eef0fef1f306f8f806
0f1c0d15231e0a0d17
0705f80d0904fcfdfe
fffcfffc0307fdffff
03fe00080d09fe0703
0d0704ff0502060204
ff00fefbfffdfb00f9
030a0304080704110c
ff01ff0300fb02fbfa
f6fd02f6f90200fe04
150c10fe060601f702
03f8f50416f6f6f7fe
fbf800fbe2fee6dfff
0bf9030701fdfafcfa
0c040403f2f9f8f2f4
ff0507f1fdfff8eb01
f2f606fa150404f8fc
0b040502f50202fefc
0508fe06ffef0008f9
010bf1fc0900ff0405
03eae2fde5e6fff400
f9f50507f5df03fcff
0b11fc0507ebfc0405
f4130eff1702fef8eb
fafe00fc030d020204
081e17041402fcfef0
01fefd01fafe020302
01040103f80102ff01
00fd0201fe00020102
00f9fe00f9f70201ff
01fe0101ff0002ff01
01fe02fff9fe000203
0002000103fd0101fd
0200fb0103fffe0204
fbf9f40207050d0c10
f2f4f4fe010bfcfafb
fcfc0005060601fdff
fa0103050a05f4ecf3
f5f200fdf4f7050404
fef8fd050506020202
f8f1f1fd0601080804
060b05020204060100
01fe01fffdfcfefd00
f2eaf5f2e8f7020205
ff0000fe010200fd03
fcf9fdef0df2091102
0303ffff020404fe08
ff020005ffff01fd01
fbf7fd01f4f6080f04
fcfbfbfdf9f6fe0201
060a01060606f5ebfc
0601fbf0e4f7f8ff05
fffd020003fa010fff
0cf3fd06e1fffcf70e
0208032119fafefaf3
0102fe07fdfbfef406
f91408fe0f05fbfae8
02fbfe01fcfdfd0bf1
f5eff5f4f3f3eef7f2
f6fc05070a0bfe010c
04020403f70105f702
feff01fcedf8f7f1fa
080805100c05090b08
01f7fc01f8f901f6fc
0107f9f4e8e600f9fb
f9f8fffcfdfe00f902
fdf8fdfc0101040b05
fef8fe07faf90afefa
fd04fcfe0605fa0302
040301090e0c00fb03
030003051208040c0c
fcf5f6fffcfb000a03
04050507090b090910
f5f1f7f2eceafe00f1
00ff04020d08050607
fbf7f7e8e1f5e9eef9
000403f4f60202fefb
03ec0bf6e103efebfb
02fafe050d0b050a0c
0e02fff5eff8f6eaff
fbfd0900f7fc01f001
040b0602fefcfc0406
fdeef2fefc04051008
faf4f1e9ebf9f4fcfa
080bf9fd05faf9fffd
f6faf7f6ea0f00f809
f40b02fd08f9fff5f9
feeffefc020cfe02fe
fd0a03fc100cfe08fa
fff1f801f7f900f6fc
01020001ff000100ff
f90208f9fc04f6fcf6
07edfde957ed0cf811
05ff0204fafc010000
00fffb0001fa000000
03fd04ff0500020008
01040103f9fafffbfe
ff0000fe02ff010202
000309fdfd06040200
fafffbfdf302f6f3f8
030a0beefc02080400
010302020301ff0101
0001fdfbfcfa000101
02fbfafbf5f8ff0303
fefcfef9f3fb040802
02fc0000ff0000fdff
fbf6fb000604001008
fefafdfdf8fefafc00
000301fe0101fd0105
0302020204050100fe
0103000103fbfb01ff
fafc03fcf8000502fc
020100fdfe0101ff02
ff0000fc02000100fc
0bf9f71002ff0505fb
fcfefcf50203f30602
01fefbf51404003f19
0100fe040102090100
ff02fc000a0103fd01
0003f70101fd03fe03
020504f901fff6f8f8
0bf5ff00f200f2f904
0a00fe0dfe000a0301
01fffc07fe02040404
f9fbfb0bff00fdf900
fefafdfdf8f9fffdfe
f8fbfffdf600000a02
faf203f6ec04f9f509
ffe8f300ebf409f3fa
070a01080406fdfc02
fc0003f8fbfc0000fb
03fdff060700fdfaf9
fef8fefa0000f9f3f5
fafbfdfd01f7fe03f7
0401fc000402fc0101
f8f3f9fefcfafe0701
e7e6fbeff500fb03ff
05fefd04fffcff01fd
fd07fcf7fc06eff50b
041404f5ef06e2d5eb
fef905e4daf5efe8ee
0203060401fefef7fb
e909d40240f30d3f02
030203fdfcfffdeefa
060602092412190f0d
04fb02f6e0f6f5eef7
01030d05fd0400f304
0b03fa06f8e8fefc00
ffe2e9fdf0f0f7f9fd
010003020002030304
fe00fb060404fefdfc
03f70200fd00fd02fc
04f701fd0607fc03fb
f6dbfb05ff0a05010c
04f803fcedf9010304
01fe0000fe01fefc01
00ff0101fffc000103
00ff01010001fffeff
0af90100f5fd07070b
00fe0001fcf7fe0007
fffffdfcfefc01ffff
010002000502000001
020102030201f8fbf9
fdfcf9fd00ff040304
fceff3f5fcf7020701
f6fbfc04040203ff02
010203fffc0201ff00
060806fefef9fefcfd
0100f9fafafe000102
040602060202f8fcfd
020300030300000300
0104ff01020102fa01
00ff00020100070100
fe01fd0101fc02fd00
02fcfffd0300fefe03
04030103faf9fc0100
fe02fb05020103ff02
fefaf7f9fdf9fdf504
fc03fdfef5fbf10c06
0103010802f5fffcfb
01fdf9f9f7090b050c
0305fd04fcfafdf503
fff706f0ea100f190c
fcfa04fd0a080908f0
0001f8f9eefbf5fa00
04ff01f508fff910fe
08060801f3fb070304
02fc0602f70400f20c
f4fefb00fb0102f705
00f60207effe05f508
05edfb0de9f60af6fe
05fdfdfbf7fc03fc01
0e16100c23120d1907
fd03fff7f2f4f9f3fb
0806000404fdf9f5f2
fcfbf7fc02fffe0d0c
f7eaf5f6f4f9fdfcf8
f5f3f6fdfc02fb0b07
0d0e07050800fbfe02
04050f0e0109080a0b
f7eff8fdfd02000703
0303f90805fdfbfbf0
fee9f605fbfb010efa
0103fe050b04f7f106
04070906f2fcfd0805
03fffe1110f4f8f801
0a070b071211f71209
faf104f807010401f8
020801030201fbf700
14ea0effcdf4faeef7
0606f005f0f6fdfe0a
fefdfcfc0507fe0601
0ff1fffff8f7fa03fe
fef1040005090306fd
ff1a0c0dfce7fef6fb
0107fa0605fd07f500
09fdf1070503041400
fe04fcfd02fdfafc04
fcf8fcf5fb0afc0002
00fae6fa0955f700e5
fffe010100020001fe
06f8fefdfaf7000002
ffff0004fdff02ff00
0300f802fafa01fe03
fe0000010200010301
fbf7faf6f8fdf8fdfc
