fffe02f2f40cf1fa16
0206000002fc0000ff
02fefe07fbff0201fc
fd06fbfe070106f803
01fefbfbfb04fd0203
ff06fb02f9f808fafd
0502f70a01eb0b01f4
fbfe03dd081de00719
f6f0fcf4f003efed10
030304070afe02fe04
0204fe0300ff0603fc
0002fa060df7090bf5
040007050507ff0102
03fcfe0402fe0502f4
00fffdfdfbfffa0101
fdfd04fbfd07fb0905
f9ecf800f4f80704f1
00fffb0308f60509ff
fe0a0702fe06fefc05
07f7fe06020201fffc
fb0c09eb060f00eb0e
fe0800f3ff1704e601
f10509f60405fa0300
06da0213ebe10313e8
fffe02fefcfb020402
020000000401fc05ff
020701040402050306
fa00fdf5fefbf9fbfe
fffef8fdf404f9fb06
ff01fbfdfd02030904
fcfefa0007000001ff
06060101fb0405ffff
02ffecfcebf306fb03
061215000a09fbfe01
020308040c0d000905
f30f0dfb1910ebf6eb
011109fa0107f9fbfe
fdf9fe07fcf9010906
fef8f7f7f002fdf7fa
0302f9f4e80107fafe
fdfdfffc0202feff03
030302ff0100ff0200
fffefdff0103fe0100
1e161df7d90dfbd70e
fefefefa00fefa0502
0202fd00050202fffc
fefefd010000000100
fffefe02fbfefd0201
00f7f7091706060d0f
06040108020706ff03
f9f8fdeaecf2f5f7f3
f4fe02fc010afcfb02
070611ede201eeedf8
ff0af9010607f9edfe
02fffb07fffc080a01
fcfefcfbfefdfeedfc
02fc0000fafa01fe02
fcf601faf3fef6f3fb
0306ff040201030504
00fdfffbf6fd01fb02
0205030004fcfe0702
f2f2fff6f700fafefd
02f6fcfbf600f8f6ff
0001fc05fefd07faf9
02fff80b02fb0510fc
05f10505fc08f411fa
fbff0000f704020500
04fdfe0afdfb0107f8
0201000604ff0a0904
000506fefcfffdfb01
06fdfe05fdfcff07fa
f7f0f305f4000206fb
0603ff0307000503fc
fcfd0cf6f615f2fb12
ff030603fc0102fd07
01040101ff01fcfafb
07f6000cfb0505f302
02fff6ff00fffffd00
020309fffefc02fdff
0002fe050804fd01fc
f31002f4f412f4e704
000eff01fa0c06f604
01f9fff8ff00fff6fd
0011fbf01013f9f411
08fb1f04f411feee08
fffcfe0201f9ff0303
fe17fffa0317fbe900
020a0af20807faed06
020202fbf202fefc02
030005fbf4fcfdff01
f8fd0201f2fb02fbfa
01000000fbfb0202ff
020401020b06060805
ff01fc02040204fc03
000002fe030001ff00
fe01fe04080b0100ff
0b110e0b0e100004fa
0a040702f1f4050004
fd1511091201f9faf5
06f6fb0bfbf2fd0103
0e201a071a12f40601
f6fcfdf6f5f402f7fe
05fd050106fcfb0104
f90404fd0908f5f3f0
fffcfc00fdfd0300fc
07050200ff02faf5ff
fbfbfc01fdfb02fdf7
fcf905ef13fef3fbff
0401ff07ff020b0407
feffff02feff020400
fdfffb0d01f4f9fcf1
fbfefc0802020304ff
02060404fe070103fd
f602e50335ea093af3
06000af6eafcf0f1f7
01f90bfaf30b01ff08
040403050802070102
fffefbfe07fbff0302
03fb0cf6eb07fcf709
020401f8ebfa00f7ef
070205050301000704
020b00090afe0405fa
fe05050100010304fe
01fffdfbfc01fe0304
fc01fe0a0e070106fd
01fe03010302fe01ff
00fdff00ff02000002
02fe0402fc05fefe01
fe02fef808f60408ff
010afcfc01f804f305
0803f51f0bda0f0bea
05fef90ef4ec0af4f4
fffafa0bf3f70af9f8
0302fef9f9f6f909f5
031005fb07f2fdf2f7
fd0203fcfb00fe0100
04fdfd09f7fd0d0303
07fff10804e715fdf8
ff0209fdfe04f7f801
fdfafef8f1fff8040a
010007fcf909fbf80b
f0f306eff218e9f31b
f7f804f8fb04fffc04
fcfcfe06fc030907ff
08e7f712f8ec060cef
08e6020dfef7060cf6
060ff80415fef90413
ff0700fc00fbfaf5fc
0a08f0ee1604f5f513
fb1af2f3f10ff4e512
05faf90b03fd0611ff
fcfafb04faf904ff05
fe000205080003fd01
010b0101f30004fc01
ffff0003030602ff03
010300061305040808
fdf9fcfafaf901fdfc
020d040e2b14040809
fcf8fcffff00faf9fa
ff0301fe0703fffc01
f1ebe9f7fa03040606
f601fbfe110df9f8f8
02f7fb04fdf20104fe
00fffd03050b060a0a
fdf0fb05eaf205fe03
02d6e50deef20c0607
fdfaf9f2f5f7070509
fcfe0503fe08fdfe00
0001feff01fe00fcfd
faf7fcfbf8fd0405fe
00fbfc0002fe010101
020400fffefefefb02
0000fc02f7fe020301
0200fcfcfbff010404
050208fcf805000205
f6f0fafcf9fa020efa
ff01fefd08eefa11ee
0a0411f2dc10e6e4fc
fc02020e100b0c0f05
050406f8f4fafcfdf8
0006fe1110020f0bfe
f3ebf7f7f0f0110806
fc01faf1f9fdf8fc05
0801040500ff0b05ff
f9e8f1faeefcf6f5fc
f6f605f0ed00f5f200
01ff01000100000100
06f904fff103fcf8fd
ff0103fe0202010500
09f608ffef02f9f4ff
f9f10000fd09f9f9ff
fdeb01f9eb02faedfd
fd04faf806f804f200
0307fc03fb01faff03
fd00fe03fc04fcfd05
fdfe03f9ff05fb0603
00fa0001f9ffff06ff
fb06010206fefef7ff
ff0005f30006f50005
04f701fbf2fbfe0cff
01fbfe07fbfa1100e7
fafefbf6f7fbfc0411
fcfffafa0001fd0eff
faf8fffcf703fb0006
03feff0600f60b06f6
070605020a010204ef
0201010603fe0101fd
f2f800f0f90becfb0c
0fe6ee1307dffa1aff
06fff30200fcfdff01
00f0010a06e1fe16fb
01fff40300f505fb05
f30712f9f213f8fa03
f8f6fe03f70fff07f6
fefbfcfeef0103f4fc
ff0501fafbfcf8f408
030100fbf8f600fb01
00000105040001f301
fffcfefb04fe01fffc
0002fd0105fffefffc
01f701040003050504
020a0101e70103f202
fafefefe0400fd0302
03f7fdf90af2fc02fc
fef5f2fdf0fb06f0fb
fdf9fc0106040a1012
fcfffbf8fb0804020b
04f5ec02f1f0080603
f9f6fbfcfdf7fc0202
080c07041805f306ff
f6f7f9fff5f2fc00fb
03010407f20208fe02
01fdfffefffc030001
030301fe0201fefc01
ff0202020103040202
0400fd0003fdfd0a06
0506fb071502030f01
ff02010100020202fc
fe00000102ff040601
0402fef7ecfefeed02
05f002fefbf7fff005
ff02fe090004fffafd
0005fc0b0bff04fb05
06000afdeffe0dfcfe
06fe09fbf6f10517f7
060a05faedfff3f002
0002fefe0204020500
01f8fcfbf9f60106f8
f8eff9fbf3fe06f907
fd06010001fcff07ff
fbf8fb06f5fb07fdfd
06030005ffff0400fc
03ff0001ffff040702
f804f70406f90609fe
f8f3fefbf503f8f5fd
08020101fa03fbf6ff
f9f6f5fd01fe050e05
fb000103f7050bff01
f70004f1f410faec06
f704fdee0103eefa05
f6fc02f20114f3010d
06f7fd26f6e513ffe7
02fffd06ff02fd0006
03fdf71209ee0706f5
0101fd00fcf3f6fbf7
0403ff040b02060300
0303fd02fcf90504f9
0104000509000700f4
fdfefdfe0003ff0308
fd0405f90204faf201
01fe0102fe05030a05
00000302fc05fcf801
00fe00fd0714f2f60c
f70b1600ed0d01f5f8
0a00f6f8fdfe02f601
06e70107eaea0804ed
0801ff03fe0cfd00f8
ed24faf5f511fde010
fdf5f404ffef0304fa
fc1707f60813f2f616
fefffdf5f600030c02
f70c09fe13050918f4
040508071d06080c08
fbfc01fbfaf901faf5
fafefe00fd0302fdfc
020203fbf102ff0706
080cf4030ffcfc100a
0101fe020002ffffff
03f6effefaf5070201
030314fe150bf50306
faf7f80efcf606100b
fdef01fce5f1fffdfe
feecf405f9f9040c08
02f3ff06f6ec0103fd
050406060e09fdfeff
020305040503050203
020404050102fe0100
01ff0202fffffe0500
020401fbfd01fffeff
fefe03fff8ffffff01
040302fd0102ff01fe
0000fdfb0200fcfb01
fdfcffff010003fdfa
010100010202010100
fff402f8f9f6fbf9f9
03010703fe0bfdf90b
00fffff100f8f4effa
feff00fff600fff8f9
0105fe0e0f04080b10
f3fb01f5fc02f300fe
0404040f000310f6fb
f9fd08f3eef4f6f2f9
02fa01fbfa00fcfefe
010302ff01010201fb
ebeefef0f0fef8f6fb
fdf90102fe00fffe02
04ff03050000000003
05fd01fcfbfefc0400
0203000203ff03fef8
060703060307fe0607
00f900f6f70ff40508
faf3fdf9f903fc05f2
0301fb0402fc07fdfb
060301050501fffbf8
07fe0608fafe0a02f8
01f905fefc09fd0503
03f20309fc080508ff
02fd0000f8fdfff900
00fefd00020102fcfc
f4fc09f0fc17f60d1e
fbff00f9fe00fefe01
02ffff02fb03020104
00ff0af9f809f6f80b
f8f9fdfaf203fcfe0e
fdfd0bfcfe09020300
f8f9fafbf5f5fdf705
00fb0003fffafffdfe
04f9f3f801f0fbeefd
fd10f7ec0f0df9f90e
02f2f70708e3000df1
fd11f8f01604fcee15
fbfff601fcf706ff02
f90829f0f1080100f6
0008fffcfdfefefafc
03fe02fffefe040c03
f7f700f3eaf6fcf2f3
feff02010002010001
fcfdfe0006fe03f803
050103fc0102050702
fffe04fafcfc0100fe
05faff05fa00030e05
fefefefdff02020503
090e09030b0c00fdfe
f0f300f8ecf802fd03
ffeff8ff01fc020608
f3edf1fbf0fd03fb02
11f2fd10efef070200
01f9fb00f6ff060701
ff0403fafe0500f4f7
03050609ff060705ff
fcfbfcff01ff020002
fbfbf70503fd0003fd
fafcfcfffa00090400
0202010104feffffff
0300fefe000001ffff
01fdfd0602f403fff4
0302fe04fefb01fffc
00fe01fdfe00fe0000
fb04f8f60ef40311f6
eef5fbedf4f40807fc
060706fbf70906fc08
fc09f5000efb02eb01
f7f8fe0803030c0704
fced07f8d3f6fde7f8
f3fcf80210f90008fa
000002060806fe0a06
060603ff0101050102
f9f807f2f405f6f503
00fe00fafe05fd0003
efeafbf4edfefdf5fe
05fdfcfcfb00ff0002
01040700fefe03fefc
0d0d05050402070c05
09060405ff04010101
00030303feff03fbff
0100ff06fefd03f201
fc0406f8020503feff
00fefeff0106fc0004
fc0101fe000004fa02
05fd00fbf60ef5ff03
04fe0702f903fe01ff
000a09f001fdf1fcf7
050afd050bfbfc01fd
f6faf9fe01fef9fb08
0200ff02fdf4fdf5eb
fefcfefffc0001fdff
0508fe0908fa0d00f5
fbf6fbfaeef6f3e906
fffd0602fb0df70106
0d09fa0f04f803fcfa
0b05f20110fd030c04
0200f7f508fe00f705
0705fdf6f009fdf501
01fefb010101010002
04fdfd01fffe04ff03
0109f5fbfdfd00f508
020601f9010006f509
08f6e90efeee0d07f5
0a0308fffa01fc04fd
faf7fbf8f7fefbf4fb
ff05fc05fbfc030106
0001020300010001fe
0207fb040b02fd09f9
02ff00050a0c0202fe
00fe0202fbff030904
ff0102f7fbfbfefb00
04141e000508f8fb00
05fd00fcf8fc06fe03
09fbfd0805f4f50307
02fcf900fdfa020204
00130d041a08f5faf3
0a0200fef9f8fd02fd
020001fef301fdfd06
ff0c09f90a00f5fafe
090208edec06fbfa0b
fcfffc00fe000004fd
010102fd02020201fe
000201fffa00fcf8fa
fbf7fdded7fce8e1fa
020003050006040403
0003ff03fbfd01fffe
000002060704fe05fe
f8050600060e020902
050400fcfff6030601
ff01fdfcff05fc0802
040202f9fcfe00fbff
00fe00fffe0004ff01
f5e9f9e0cdefebd6f0
fef905fee3fdf8eff8
04ff08fbf3fbfdf4f9
0206f90103fd0107fd
02f7fffdf009fbf002
fd0905fd0103f90104
01020202fe040102fe
01fe010202fefffdfb
01030700ffff05fffa
ff0500020200fd01ff
faf402fafa04fbf9fe
ff030100fd00fc0501
03f9fe02fc03ff0402
f7fb08f20c13fb1109
fff903fdfe07fc0302
f604fefd02ff14ff03
0906ef0effdf14fee6
fff609ed041bea0b11
060207fbfefcfef8fe
0305fb0705f60a0104
f7f700f8f409f5fe0f
fcf901f5f407fa0419
f8fb03f8f605ff060b
0503fa0102fd0401f9
07030308fdf2f7f1f3
fafc01fffa09fafe13
fc0103fbfd04020a07
fc040100fcfe02fe02
fe0af7fb0c00faf20a
01ef0603f900fe02f9
fe05f5fefafe05fb02
03f613f61008f9fe08
01f803000afefe0afd
02faf606faf9040100
f9050401f20af8f9fd
02feff01080602fc01
01010100fe01ff00fd
01fd0205060602fe04
02ff010005ff0001fc
00010002fdfd000105
0406fdfaf3f9f8f901
ff0402000202feffff
f3f7faf8f6fc02fc01
000d09030609fc0300
0afaf303ebf20203fa
02f701fcf109010202
0908fffffe00fe00fe
f8faf90900fd0d0605
07f0ed01edfa0b0101
100c090b090afe0506
01f4fa000102030705
040904032802f8fc03
ff0100f6f5fdff0504
020200030201ff03fe
fffafff61603fb0607
fe00feff0300fe0901
fefefcfafdfefef9ff
0001000101fe03fe01
fbfafbfcfdf7fe02f6
08030408f803040203
07fc07fde0fbfef303
0dfcfc0f17051617ff
ffec0df4d3fbf6e6fb
08030e08e400fee4fb
04fef707fffffefa06
00fafaf6f1e9fcf8f5
fafafffaf3fcfefa06
ffe6fd01df02f9e7f7
0409050101ff0100fb
05040602fe0404fbf6
06020402000001fefb
f8f3fef1ecfbf2effb
fcf7fcf9f8fcfcf9fc
0709070706020802ff
01f30305fc0d01fb04
