fb01f7f5fbfef906ff
0802090d040b04fe04
0910050304fc000b08
feff04f7f8f601fffd
000405fafbfaf8ff03
fbf9faf4f4e8fbfffe
0b0e12120f0f090c0d
f8f7fcfbff0000f7fd
070df50f08f71afd01
060809090d0b0f0c0b
03e9f3fae5f6faecfa
01f506f50608f60b0d
fff5f2fbe0f8f6e8fc
fafdfa0206f009feef
fbf8f5f6f2fcf5f9fa
08fd0000fdfefff8fc
fffc02fd000400fefd
01fd0100fffe00fe00
0202000306fe0305ff
ff020208fd02fffc04
fffffe03f8fe05ff03
0001ff02fefc01ff02
04ff02000104020100
fbfe0303fef90100fe
f4110ceff70009e304
fefe01fdfbff01feff
070501fbf6fbfdf500
00ff04f8f9ff010d05
0802fe02eff803fbfc
03e50408e906ff0400
02ff01f502fdff00fb
f704feed0aff040dfd
0301060a080702ff04
fe00fefe02fdfe01fd
040501020602040601
ff04fffc01fbf8fef8
020502071003050802
000301fdfdff010101
fdfefffdfa03fcfdfe
04000000fd02fb010d
f4fe14e7f9fbd8e004
f4eff6edf3f5e9effc
0a0408f3f7f9d9e3f3
f403ef051100172106
fd0815f4fcfee8eee7
fdf6ecfff9eb05fcf2
f8f8f9fb00fcfafcf8
f702f5f3fef6fcfbfe
0200fffb01fdf80301
fffeff04fd01fffdff
0100010103000405ff
0b1a16e6eb2de3e12a
020701f8f80708f800
fe0101fc0a00fefc05
01010002030002fdfd
010203fcfb06fcfffd
080002f9f8f2ff0103
0900fe10fffb0600fc
0300ff030704030400
0a00f907ff0105f9fd
000404fb0810fff2fc
fbf9f70b0c0605f7f6
fe01fa0ef7e70c0401
020102f8000603080a
0405ffff0801010600
040202fafbf0f902fe
030502040303040202
fd07fefafff6ff0501
0a030705fafd0afd08
01ff02fb04fe010005
fe00fdfdfdfaff05fd
0dfefffb01f5050204
00f7f8fc04f9020e03
0ff90002f6fcff0202
09edebfedff0f0f1fd
04fefb01dcf6feed06
effc09f2000bf6000b
f7f4fef6f1fff9f9fd
0300fefef6fefcf5fd
0dfffa07f600fa0104
ff00fd0002fefffdfe
ff04fe0208fe030301
01ff0206f9fa02fefe
060503030701040404
0800020700020a0306
01ff010300fe0300fe
fafbfafbe7f2fbf4fb
ffff010003fd000300
08050100fdfd00fb01
030dfaf9f7fe04fd0d
020602f8faffff0105
0c0afd0ee8f2fee701
070102fbf7f7060703
fefefa0601fe030001
0d07ff06ebf2f9e3fe
070203fd07fbfe03f4
fefcfcfff9fffcfbfb
fdf8fdf7edf2faf4f7
ff0300040e03030601
00fe01fefffe0201fd
04030601fe020a050a
fdfdfcfb00fafffffb
020101030502010201
02fe02fcf1fcff0203
050714f40509fa0312
fc0509f9fa04efeef9
070114eef3fde7e6f4
060b0bfc0409f401f1
fcf00503f3fc422023
fa04fb0707ff010a02
ff06ef0003fceef9eb
0f1529faff1af5fc1a
0104ff020501010203
000004020c01f3ff08
00020103fc00ff0402
f601fe05efff05f8f8
03feff0a030402fe00
fffd0300fe01000000
fbeb09f449fd04ebfc
01fefb08fdfb0201fc
01fefb0303fb00fdfb
050200f60505fcfefc
fef8fd00f3fc02fe02
020008080604fdeff9
0efd09fdf20106fd0a
030000fdf8f9f9f8f7
030303fb050bfff5fe
04faf9f800060303fa
fc010202fe06fffc0c
fef50005fe0002f0ff
0f0b070d081211050b
0b090d10110c110f0e
050b050704fd0a0200
faf80200fb01fafbf7
020906040c09fd03ff
fcf90503000400fafb
f7fcf5f9fbf8ff08fc
f21108ff1a050a0fff
0306f80afaf503fef3
10090409edf6f6f4f9
090e12fe070dfc0506
11f9040de301feebff
fc0b160606030cfd00
0bf5010ceb0005f5fe
fdfd03020002020200
fffb0203fc05fefe03
02fe0100ff03feff01
000102fe03ff0305fe
fe01fefef8fefdfd03
f8fbfff9fdfe030104
fb0202fafcfcf4fd03
04fe070205000806f3
f701fcf906f70301ff
e6e10b0210ff0c0efa
0509fd0400f402faf6
fe090100090201fefe
0906ff1a0405ecf3fb
100c02fc05f1ededfd
fa03fd050cfe030ef4
fcff00070afe070600
fdfbfdf5f4f3f4f2f3
fdfd0002f80001ff01
01fffe00fefc010300
fffb01fcf5fefefdfd
02ff02050805080302
03fffe03fffe040701
02080404040a00fe04
02fc06f9f2fdfefcfd
0e0109030307f1f6f5
ebee19f90426f0fa18
f9f6fdf5f8f9e3effb
00fcf7fdf8fdfdf702
fd031a070706f30203
051122f7050fd9e7fe
0a090a352b21262719
000202fefafd03fffb
fefffd00fe02fbfc01
030105f0f605000103
010105fc0000fffd02
010302fe0402040101
01010200fbff01f9fc
f5f8f70103fc0103fb
fffff4fefcf403fbf8
0d0df71118defff7ff
05f9f71bf9d4fb01ff
ffff0a0ff007010300
0303fdf90bfc0909fc
fd02fa03fce60c07fc
0504fefb0508f8fd05
06eff619f7e614f1e4
0401fafcfb0402fdf3
05fbfc1aeedc11f9ed
04fd0600f3ff00f502
fbf601fc030e05fe00
0fff020f0118120706
00fe0001060602fd01
02fc020300ff020401
0404fef9fcf2010405
e9e4ecece3e9eee6ee
04fe0204feff0000ff
f7fc07ed1c06011303
fe06f60ff2fe07fc02
fafef9fcf7fbf60307
0dfffc0909f308fcfe
1df1fb08e8fcf9f803
e00201f91f06fd0af8
fff5f1fbf5f1fbfbf7
1deaee0dc9f503e2f8
03fdff02fc0505fb01
ff0107fb02080604fd
02fe030101040403ff
f9e2e4efc5e4d9d2fe
1201ea1902e010f8e5
0100ff01fffcfcfe02
0102fd000201010202
0505fd0001fd0304fd
00f502ffe90807020a
fafe020606fd020103
f9f20ff8fc0eff03ff
ff0903f10404f3ff07
0b0e00fafbfefcfa01
eff104f9f4090b1601
0201fe01f8fafefffe
0611fa060cf8f2ec02
00fdfffbfef8fbf4fb
fe08fc041f030119ff
fdf9fbf7eef9f8f5fd
0002020000ffff0201
0106fb020200020000
fc01fb010bfa0004f9
fdfcfcfefdfbfdfaf9
01f9fefef4fffffb02
02021f070916f60205
0f17f3fe02f30304f8
fcfff40910ff0007f5
050306000208f8f5fa
0d0922e7ef07e4e704
0a0615f2f4f0f9fcfe
fbf909fbf3fbeff3f4
00fd1503ff16e9eb0d
02ff07faf90afef60a
000204fc0604fffdff
fe0002020000fffb06
00f804f90101f519fc
0304fc0101f906f9ff
030401fbf802faf702
0100fe02fffffd04fc
0505fc0505fa0300f9
fa04040ceff5fdf308
f6fc0b0900010bfefb
fb0209ffe9fb1bfdfb
02f80308f7f7080201
f9f80a06fafe05fa00
fd0503d2fd19e9fc12
0002041907f40effe9
02f5fd12f9e706faf3
04060003fdfdf70604
01fdf90001fc0101ff
f1e6f1f0e3f0f0ebf1
f8fa00f5f5f9fff5fe
efe7f0ede8f1f8eef2
0d0f050002f40412ff
04ff030f050e0afdfd
090a040105070a040c
06f10002f5fdf2f400
f7f6f5f6f9f7fb0702
fd020dfbfa06f7fd03
fafcfc0109000a0c03
00070505fcf9fcf7ef
fdfc030204fdfffbff
11ebeffaedfcf5f9ff
fdfa05fdf901faf7fe
0401fb07fefd030000
0001010401ff0502ff
000201000102030000
02fffe02fe0201fc01
030200040103ffff01
00fffd0000fff90003
0401000205fffffe02
fd02fffe000300fdfe
fdfd03fdf8fb0cf5fa
0a070003fefbfc02ff
03fb040afd03fcfc02
fcf800f0dcfb0805fa
0101ffff08f9fd07fe
0c03fdfcf20201ef05
000606fe00ffff09fe
0a04fd06fef6f6eef5
fbf2fff6e7f8f7f2f8
00fcfdfefdfefe0100
f8f9fff3f1f7f6f7f6
00fb00fef9fefffafa
01010201ff00010101
070506fe02060a0107
fbfd02fefd000301fe
040100050103040303
e7f7e3020df2010af7
08fe09f3f2fef3f700
f6040df3f800f3f9f9
f9fafffbf602040204
fafcf2fe00f6ff00ea
faf9faf2f7fce8f1f1
02fb13e7f300e7e705
010904fe02fff1f9fa
00fe03fdf804fffe00
0408fefefe02fefe02
0301fefffe01ffff04
030603f8f403f9fc02
ff0401ff040104fd03
030102f80103fd0003
02030001030201fb04
01feff00fafc0204ff
04f1fb03f7ff0bf8fc
01fd0209fefc03fefb
fd020206f8fd0df1e6
07020302fb14f6f0f9
03fe02ff060f01feff
0cfdf7fe090900fe04
fbfd0105fdf3050705
0206fcfc01fd01fbfa
fbfaf6f7faf5f5faf9
f6f302f8f502f8f100
fd02000103ffff00fe
04fa040afe0303fa02
090a070a0300000901
030503030203ff0605
0507f5e8faf9fb0c09
0203030101fefcfffe
fdfbf700eefcf7ee04
12eefa04e0fcfbf102
fa030af6f70bfb0206
fe0408ed20020c0700
f4fd04fdf900fa0209
ff070007e8f608ecfe
18f0f604e5ec05f1fc
020e0208fbf109ecf5
000001fe06010004ff
fe04fef80506fc0303
eee903f0def504e2e8
fefa04fdf80500fbff
01ff00fc0001030502
00f9fafaf0f5fdfdf8
0206fbff03f9fffcfd
fe0000fe0002010104
080e01ff06fffbf200
0207fdfdf903f0f3fc
0f000111f3fbfff3fd
f9f20601000ffd08fd
1809f6f7ed00eaf703
050d01ee0b08f0f308
0b06fff4ee06010608
030505022605f409f7
000301050501030404
fbfcf8f8f9f6fd01f8
02fe00fefefdfb01ff
faf8fefaf8fcfcf902
090201040908060606
010102040502040303
f8e6f3fcdef601f0fd
ffff02fe0102000204
050908f8fafce7e7f4
0a0aecfbfcdd0708e8
fc0afc000406fb03f6
f40208fc1008fc0a08
eff407eaf4fce0f708
0a0308fefd0aeff40a
040f1c050408070e01
fc0007fe010df8f7fe
000100fe0601020104
fcf8f71802ef0d03f0
fcfef70d01f111fbf3
fcfe0500fd04f7ec0b
00ff0001f80001fb02
07f9f9030103fafd08
fbfbfb04f9fc01fbfa
0200fd0200fdff0400
01fbfc01fffe0304fd
00f0ff1debe824f6e2
ff06ff0101fe05f6fe
04fcf80efcebefff14
faf4fc0b0d01010205
fff6faf8f7f8fe0605
fd0cf4de0c08ef0904
fff9fc070cf800130d
ff000cfffe05fcfa05
0301fe02020a080404
00fe01f7f9f900f7f5
01020001020300ff03
fffefffffffcfe0303
02fdfbfcfafd000004
fd03fafefffaff0202
0201fefcfafe080403
f60f07fa1105041103
060e0112eafc00f407
f8fd12ef000eecff06
01000101fcfdfffc01
08fb02f9feff00faf9
fe0dfa0e02f908f4f9
fff5f907ecfeffebf9
fd0b0dfb0a08050e08
f9010bf8010ffe070b
06fcfb01fb01010101
01000003fe01fdfc00
fffe01000300ff0300
060607030310060808
fe0005fcfd00fb0102
00ff000404fffdfeff
fefc03fdf900fb0005
fbf1fc05fb03051104
0102ff020bf50002f8
0500050efffc060afa
010000ff06fffcfefb
0a02040101fffcfff9
060f02f40c05f2ec00
ff0cf605fafff2f303
f7f702fd0706fd0707
05050106fe0201ff00
fef6fdfaedfdf9f9f9
fafa00fefafe02fcfd
ff0200fefefefdffff
0402020102fe00fffe
060506090c0a060907
0209050a0a060a0d07
ff0101ff00ff0104fe
0101e51b0eec180ee0
0dfb18120419faf7ff
fd01ec1617011616f5
04fd0d05fd08fefc06
0304ff01fdf30702ee
040504010002f8fb01
f6fe1d04fe0a020620
fbff02fa0503e9fbfc
020907f2fa09fcf906
fafafdf6f703ff01fb
fe0002f9fd0804fb05
0300000001fd000401
060b0af0fc12f0fa0b
02fc0101fc0400fa04
ff040109f9fd00fefa
fe00000101fd020704
fc0104f2fa0bfb030b
fa01fe04eafd17ffd6
ff030a07ebfcfff5fe
02fcf60504f80108fb
fffaf7020201ff0207
fdf6fcf9fffc000d04
0805fcf400f6f905f9
090101faff02fcff00
01f803050006fff7fd
030502fefffe020402
f3ede5e3dbe0dfe3f3
05040204ff03010304
f7f0f9fff4fc07faf9
f8f1fcf6f9fb00f304
eee5e8e5e4e9eee7ef
fbfd0000000600fdff
03010804ff09020404
ff10fa0bfeee08e6f0
ff09040ceeeffde6ec
0010fe03f2f90cf3ff
02f9fafae403f5f3f8
f0f20eea0a18fc0f15
0f12f715f7fc0cf1fe
0603fa06fbf009f4f7
0301f804f8f7fbfb01
0b09100c1a1a111813
0100fdfe0200fe04fd
00fd05fbfd01ff0004
0301fc03faf8fffdfd
03fdfb02f4fdf9f905
000000fd07020008fd
04fdfa00fafb00fbfe
fef204fb0dfdfe10fc
070804f80902f9e9fd
0206fdfb07fbf2f9fd
040d04ef0305f1ed08
03f502fff803ff0aff
fcf205deef08011207
020901f803fbf0f6fc
02fdfbfcfefdfd00fd
040003fcf6fcfafcf8
000001040807000301
000303040006020a02
040407080a06040704
060907040708070a08
fffbfd02fafc02fb01
030504080703030704
02fb03faf7fdfcf7fc
01fcf8fcfd040405ff
03060b020207f6f60c
03f607fef9faf9e5f5
fdfb0406000300000c
f7fcf0f1fdef0e11f4
ecf8fcfb07100a130c
0703fc09fcf401f7f1
050f0ef10107e4ecfb
fbf5f30000ebf42de7
fcf3f9fbf6f9031ffe
03000303fb00fdfcfa
f7f5fe08f9f0fe02ff
fd0000fefd0000ff01
01fe03faf008fbf807
ff04fffa0200ff02ff
fc040000fbf9fe08f6
02fc060ff5e60e01f1
01fbf5fe03fd010507
04eff30500020607fb
02f7f6f407ffff0c0c
fdfa0404faf903f800
fff400f9e70c00ff13
00fefbfb04fe0808ff
fcf60218f5ef0af9f0
