faf40300000b07fefa
01fefefffefdfe06fb
090d07000601fbfdf8
fdfffd030c05f9fe01
fef90003fffa020a04
fbfefa02fbf5fff8fa
01fbff02f9f8fafffd
06060705070bf1ff06
faf3f8f8f5fb09fcfc
f6f3ebf1f1e8f3f4ea
f4f0f1f2edf2f7f7f8
000d0a111d19f70707
ffff00fbfefcf80103
0702fc04020802fc07
020401ff00fcfffffb
00fffcfbfbf60502ff
090600060e08fffdfc
faf9fcfcf7f7fbfbfd
fefcfffcfb01fdfafc
030203ff0500fffefa
fdf3010c0bf8ff0809
f1eef612ebe4142a07
040705f8fb00f9f8f7
0c1509e4f71df3c4f1
fcf9f9fef701fef604
00fb01fffcfa010401
f90405090707050501
fa04020d100a00fff9
fd00fe01e6f30cedfa
f5fefe0516050705f7
060809fefa030607fd
01fa05ebf20feef707
00fb020006fe04fffe
020003fa0102fffe02
04ff00fe0300000204
06fdf70401010703fd
020406fff90403fe00
fd0103f20306f80807
0202ff040204fe0001
fb0704fa0a0202f7fe
02fdff0100020402fe
020602040800010100
00fefffdfdfffc00ff
fc10ff071e04fb0500
f9fc000903f8fbfff8
feff04fdfc01fffbfe
000502fafdfdfbfdfe
01fbfb01f600050001
00ff0200fdfbfefffd
020101fd00fbfe00ff
030503050b05030504
010000010101040203
fcff0403ff050200ff
02fe01ff08ff04ffff
050302040000fffd02
fcfdfff7fcfa0101ff
faf309f8e70300ef01
ff09f6fd15f3fafefa
060e010007fcfd0afd
fcf701fcfe03f901fb
fdfa050df602fceafe
fb0c00fff901fadb00
fdf8fafaf3fcf2f7fb
ff0309e9ee05fef103
060902ff0604fcfafb
112814fb0cfde7d9e8
ff0400ff00fe0303ff
03010202fd0007fef6
17100a0501f90203f9
fffd02fc05f8fe05fa
01fffe040101040201
fef8fb0a050601ff08
f8f3e9f7f2ee02fdfd
010100020303fe0201
f6f9fbf7fafcfdf8f7
0603f2fbfcecfc03f2
ef0919f10511fe0a18
fefc00fcff01000204
0702f00206f70302fd
fef3fb00f50006fe08
03fefd0300f8010a00
fdfd05fafcfafaf80a
fbfd02fc0002fbfc00
fff7f60b04f5050f0c
0706fcff04f80d08fe
fcfc01fc000000fefb
fef8fa090bfcfd020a
0afffb060af4f30d07
0503ff00030afb0006
fe0af91315fafefef9
0909ff0aff0b0c0c0c
01fc09f8dcfb09f1fd
f7f8ff0a0b0f030106
ebedfaebedf2f5f1f7
eff70df1dbf608f4f7
fcf805091708fafefb
0401fc0004fe0004ff
16f8e638f5df1401f2
fcfe0203fa02060004
01fcff02faff06ff02
fdeafbfef60dfff50c
ff03ff01fff9fcfaff
04fe02fdfafc040501
03fffc0efff607fff8
fffcfe030800fcfdfd
f9fcf7fffffe020401
fe01fbfa0704f8fffc
030702fd070701fdff
fe04fd090c06ff02ff
010404030201050104
0201010504fbfdff00
fd02ff010704fdff00
030302020201fffaff
00000004f603fa0501
02000003020001fefe
fd000202fbfffd02fb
fe03ff0b0d08fc02fe
01010002000000ff01
ff00030400fcfdfefc
010101fef3fcfffc00
f7f5f300f8fafa03f6
08fb09fffafcfbf502
fbfafcfff9fcfef3f5
01fc060c0201030aff
0402fbf3f7f004fa00
030100faf6fa0a1800
f9f5020101f1fbfbf7
fbf7ff080b07f800f6
010806fb01f6fa0300
f9f4fa04fd01050907
f9f901fcf6fc060cfb
040601fffaf7fb00fb
fff90006fbfe070101
e7d5e70802f90c0a01
00fc0001f9030a0b09
fcf5fdfafbf9fc0b02
fd00fdfdfaf903fd00
f8f204f6f000f0eefb
f5f7fdf5fd02fcfe0a
04010404000103fdfd
fff3f2fff9f8f9f7fb
eee3e4f9f0f2faf6fc
1913131f1e1b16110f
070802050700010500
fef8000906f600f80d
fef8fd0dfefaff0cff
fcf903fbf8f7fbf800
010706fff90001fbf7
0101fa03f5f7fe0804
fff2ef0c03f0eff008
020803f9fd0b04fafe
00fafd0403f6f9080a
0a0b07f70403fd0604
f4fcfdf908fcf6fbfb
0409040206000601f8
fcfcf9f3f4f9fa05ff
05fa00f3f4fceff0fd
06eeeaf8d9defdedef
fbe8f8e3d9edefeef8
1608fb05fbfa0b0506
fefe03f60309fc030b
fd0106f8f90afdfa05
fe0408fc0307000003
ff03ff0000fffe0100
fdf8faf9f5f9f7f8f9
0bf4ec14f1e112faef
09fdf5f600fdfefefa
01fc0002fe05fdfe01
fcfdfcf6f8f201fffb
fc00fffefd00fefcfd
00fd0201fe00060403
fefdfc020701000000
fff9fc03f9f80002ff
020500040cfdfd02fb
00fe00fdf7fbfdf9fd
01fe01010803010902
ff0101ff01ff00fc01
fafdfafd03fe03fe07
030403020503000505
fffdffff0106fd0004
02fe00feff00030301
fcfe000a0608fd01fc
fbfdfefaf9fa01ff01
030101ff0501050504
000203fbf606fef602
ee03f0f3f2fbfbf4fd
fbfff801ff04020208
0afefcfd1013f40202
00f6fb0deeff0f0407
01f00312f10bef0bfa
020c00fd01f402fd08
fafaf3fa37eefdfdfd
05010b00f7fff1e8e7
eadeedfe00f513360e
01fe00ebecf9f9fa00
050004fdfd03f8fe05
fbfcfcfb00fc020801
fef8fffaf9f9010204
fcfc03fbf9fd0001f9
faf601fdfb05050502
00fbfbfcfaff06fefb
000a030a120afd05ff
f900fc0708040b0705
00fd04f8fafc060106
f4f2f6eeedf2020005
f5f5f8f8f9fcf7f800
0100fdfefefbfe02fd
01f702fef7fd06fb08
010903f8ed090cf6f6
f9fd010cfefdfc0d08
030709f10310fcddf3
ff040200fd00faf6ff
fffb01fffffa010400
020602f70407f7f5f9
fcf7f71b06f20d1214
fff7f70600f8fdfd08
060506f5ffff06fe05
0502040c03fe00f4f5
12fdfef5d4f7e7f40b
0d0bff08f8f500fa03
fafd00f4fd01fe0201
ecfe050a180f0c0e02
0304080c06050c0605
1c0f080bf1f8fff600
feff05eafa11f6fd0a
fe010222fce716f7f4
fc0003f8ff0ef2fe0a
ff02fb05fcfe02fe01
f9ff09f70109feff06
f80007f4f806f7fb0a
000202fd0401000303
07fff50ffbeb0903f5
00f6fefcebf604f5fe
fe04ff020e03fc01fd
02030202f9fa010000
02060303fbf401f9f8
fe0800021203f8fcfd
fbf7fdf9f4fc00fc00
000502ff02fd00feff
041106f903fefdf7ff
ffff00f106fafb0303
fb00fc131813080d06
0400030008fefe0803
ff0101ff0101fc0000
0300fd0203ff0101ff
fcfbfcf6f4f1fcfb01
ff0404000203020000
010203fefa00010101
000001ebd2e90fe712
03030afafffb010f05
0306fff6f906fcea06
050000fcff09fdf104
0019f90e0605fae6f8
0304f8f9f4f9fae704
ff00fef8f7f9f7fafa
fdecff00f7fbff34f2
0d1709fefefdede5f2
0702fffeff05fafc03
050709f4f4faf900fa
000202ff0002fbf3f8
fcf7fcfbfe02040601
0e0d020c0703f9ecf7
fc04050102fc0103fa
020102fdfbff0806fd
1210070a0f030506fa
fdfbf7fb00fe03070a
fefcf8030103010002
01fffbfdfaf8ff01fa
0003fbfc00f5f8f7ed
04fcfcf6f4f6fef4fd
f2f4f7f7f4f600fb00
f7ff07f7fd09f20611
010200ef050400fc00
00f8fa0a02f50709ff
fa0200080305090b07
0d0c03f5fdfff0ebfa
fff7f4070e02010c0d
040004ff00ff0908fe
030301fd00fef8fbf9
04fb030100faf8fd06
fff3fa02f9f700fdf9
0e000307fbfcfbfcfe
fffffefaf8ee08fcf7
fcf704ede8fbf8ebf8
fcfb02fcedfbfef6fc
01fe030107ff0200fe
0c0b02161e000909fa
01fe00f5f8fcf7f2ef
020203f80504fdfffc
050000ff0205ff0204
ff0400fd0101ff0203
f7f305f3f70bfa0001
fe0200fc0101fafb02
04f4fefefefe0201ff
fdfe00ff0305000000
00feff000101ff0102
fe0101fefaff010005
010b02f60604fbf7ff
00fe010100fd010800
fffcfffdf9fcfffafc
fffd030100ff0401fe
fcfb0100fb03010004
0009fc0004fafdf8fb
0001ff050a03020602
ff00fffbeff700ff04
01ff05030702020000
01fe01ff01fd040600
00fefef7fcfcf90004
00fe0002fe030200fe
0000fdf6f0f9ff0300
0400fd000502fffcff
02fe0206ff01000304
0c0202040002fee300
000308060b02f7fdf9
04040c05f600fcf4fe
f202fbededfef2d2f6
f6000007100f04fffd
09fefdf4eaf9f9e807
0301fc010e0bfdfbf4
0300fc120400fe02fe
060806010203fef7fc
f4f8f8fe04f70a0c05
01fbfc06fefb0705fa
03f700fef2f9020602
0bf6fa080101f6030a
05ff0103fa01fcfc07
051914fbf801f5e7f5
0100fb0300ff05010a
f6f3f5f6f7f402f9fc
0e10ff0708f90c1102
0501f9fdfdf70507fe
fcfefeff03030f090e
02fbfe00fcfdfffc02
fafc01fefefcfef8fc
060708060b08010909
06fc0304ff0306ff01
ffff00040506fbf803
faff01fef4f1fa0402
fbfbfc0a01f8070d03
ff010300fdfaf90508
fa0302f5edf6f2f5fe
05070af9fb00f8eff3
000c06f4ef100dfef5
fefdfd03fcfa01fc02
040c040712050203fc
1e0eff0ef8f2f3e8ee
02fe01f8e2fdfdf601
0d0301f60700020800
03f90000f8fd02f9fe
160afe10fd05010510
fb0100f40801fb130e
0203050510060b0f09
ff0003000500030301
0ef9e921ede41cf8ec
05fcff07fbfd0302ff
08fcfcf0ff0cee070b
00f401f5f6fffdfc04
fdfcfcfdf8fdfdfd02
f90a01f10c03f10303
0500020405030405ff
0102ff010000ff0100
0205fe040501fafefc
fff9fd0800faff0901
040a05fbf3fffffa00
01ff01000108030604
040502070701000203
04000402f5feffffff
010002fb0006020203
03040403ff010103ff
01040106080f000502
fd00000500fe010200
02fd01fbfdf90100ff
010301fdfc01ff01fc
00ff00fdfa01fa00fb
00fd01f8f3f7000200
0100ff040002030002
03fe06fcfefa0409fb
020500eee6f7f1eaf3
04fa0212fd00010bf8
05f706f0f7fa01e508
0cfdff03f1f604ebf9
08f90403fd07fe0c02
fd070efff8fd00f00d
01fd0000f2fe031206
fdfffdfcfcf7fb1407
fe04fafefffd0211ff
090105020902070bfd
fbfdfbfd0200fd0203
fafb0003fd040203fd
fcf2fcf7f303080107
fb03070701050b02ff
0a0403f2f1f7f2fcfe
051304030efe000afb
f6f8ffecedf201070f
080406060609050a08
0503050a0402020803
0606f7070afb0005f4
020602fe0101060206
050206040100fff8fc
02fd02fefefe09030a
0201020000fb040500
fafcfc0af5fb0a07f7
faf902fbf7f50702ff
fefefe01fff900ff02
fdfb000001050100ff
ffff0001fefefef801
fefb020bfffdf8fa02
060502f50608f7f600
0af6f305f4fafefcfb
0300fff8fefdfef7fd
0309000e1205131502
fff9f0efe1e2eee5ed
f900fd0e0e020300f5
f9f4f6fae802fcf2ff
02fb0104ff02f6f801
0200fef8edfff5f0fb
02fc000bf40005fbfd
f30602fe04050c00ff
faff04fd030afc0205
0502020100f90201fd
f90200f60105ff0100
fc0105fa0101030303
fffbfef9effcfff7fc
f80007f0fd0b000105
fcfdfd01fafc030202
00ff010201ff000b01
fbff00fb0101fd0108
000205020004ffff00
0405fdf9eefd00fc06
04fdfdff0105ff0301
04fe0004fcfe010100
fdfd01fb01fd00fc03
fafdf9fcfffd020002
fb02fc030002050006
010401fdfdff010004
00020002020102ffff
030501fffcfa030002
00feff02fd00fe02ff
fdfdfdfcf3fcfcfafb
fafdfef6f9fb02ff00
fff7ff09020b05fb07
03090102f608f8f003
04060315f501f8f304
020302010703010302
f4def6f714e80560e1
06f60005f80f05fbfe
030409fa0202030100
f2f8fef8f705041c04
00f6f9fef6f7fc0b00
03ff0402fe0500fd02
04f8fa0301fdff0a09
010103020008fdfe06
f4e5ed0a0205050f0c
050101050303fff7fb
fffefffdfe0503fb03
fcf8f7fcfaf60a0903
08090a07090b010403
fef9ff01fdfcfffc02
0500000304fd0100f4
040608050a0afeff03
f5faf30207000305fe
01ff01fdfbfffdfdff
faf8fbf9fcfcff0002
fdfdf8fdfcf60e090b
00fbfd0606f7fc0207
00ffff03fefbfe0101
06fffd0507fc0b0805
020808f9f901f8f2fe
07fef2fe13fefa1508
fdfafcf901060808fd
ff010006040202fd05
00f7f40101f4fb0502
00fd00fdf1f8ff09fd
06020205ef0404f805
0902fe040801ff0a02
0f0d030afb05fafb0d
08fefff6f507050e0b
fdf802ef010b050800
01f9f903fbfef9f9fe
0400fdfefaee03fdf7
f70009f9030d02fe01
04fd020000fb0102fc
000000f7ff00fefdfc
010101ff020100ffff
f90008ec0214f3fd0e
f70005f6fa12f4fb09
ff03fdfdfffb0100fd
fcfffeef0004fcfd03
000201fd0400fff7fc
01fdfdfe01060100fe
03fffd000200010301
05ff01fb0503000300
01020405050200fefe
fcfcfcfffbfafefe01
ff0100030604040801
fb0200f4fef8fbf9fa
0003fe020403040506
fffefffefc01ff02fe
0205ff00fd0901fefc
01fcfefcfb03fb02fd
fffcfc0300fcfffbff
fe0002fffff30501fc
02010202ff000300fb
fffcfffc01fe0105ff
fff80208010df514f6
03f909fef805fe07ff
fdfdfe0b0813f50cfb
05f0fffdf10bf903fe
f102f50202f7fbff01
fd02f306ddedfbdbf5
02fc0704071407fef5
f70bf8fdf0faf7ea00
