fdfefef8fcfd01fefd
fd0002fffb01030000
030701030400030400
f7fffeff0004ff0503
fafb01fbf9fd01fefa
0406050c100d050908
0101fefbfbfcfefcfb
f7f201ead7f1feebf1
02fd01060005fe0203
fdfffdfdfdfefdfdfe
ff00fdfefdf9fe01fd
03f304f5ddf107f507
fcfcfbfcfcfbfafcfa
fefcfb011100fc0401
04030105ff01ff0203
0200fb0009fcfe01fc
ff0000f8fffa060201
fdfe050bf4fc02fb04
fdfbfef9fd02fefc01
0207fc0d02f3fd00fe
f9fdfbf1f6eb04fdf5
01fffc00fb06fefc05
000301fc0501fafd01
00fd00fffe0502fd00
fbfd0cf9fc05f90c10
0603fd0502fd060100
0303000303fd0301f9
f8fd06fcf80d01060a
05fd04fdf5feffff00
0507040bfdf703fffa
fefcfff704040101fa
f9ff0cf10410fe0904
0403ff02fe01feff03
ff0400fe02feff0300
000101010200010502
f9f1feece7f0faecf8
ffff0105020001ff01
0002fffe040202fdfd
0200000202fefe0002
0201fcffff01fafc00
01fffe0003fefaf7f4
0007fcf302f0000b00
0501010f020d00f4f8
fe00ff01fb0400fd00
03fe04000013f7ee03
fa1409ec010d0800e9
fbfdf7f3fdf1fbf9f4
09f7000c0c13e9040a
ff01fa00fe05fdf402
f4f6f8f1f4f5fbfffd
00ff0002fdfe01f5fb
0cf00905e9fe0bf903
ede8f801eafa01f2ec
002324f70f08ff120d
050308000207fefb00
0df5fd0cfe0d10080e
04f2dffbedea001a0a
fcfffd03020501fc03
eeebf3f8fbf7090d0c
f6fa05fdfb00080904
f9f5f5fd080802110a
fc00f10315fc060406
fa00020202ff010202
070608f4f40001faff
0302ff020702040301
0202f6021304f6040a
01fffc0404ff0104fc
fe03020004ff000201
ff05ff06110b000701
03fffffbfc00fcfd02
00fd02030201000200
fdfafa0001fbf8fcfe
fefe000100fefafafa
03fc09fae7fd03fd06
f8fcfcf9fcf7fafcf7
fff3ee0802f3fdfdff
0205030c0d0d000200
fb0601fefcfef9fefc
fd0c00f3ff05f70501
fefb0102f6fd04fc00
01010204080afe0508
fbfd01f50502010501
ff0bfdfb09fafdfffa
0508030809ff0306fe
fdfc010505fffd02ff
040103010003000102
00ff01fffaff01fe03
fdf9fd00fefc0200fc
0803fd0300f90003f8
1412fc0d03e703eef1
070001f9fd03010302
01010201f9f0f8f9fb
fdfb01f9f80106020d
0102fe0404f60500ff
000706f9f9f2f8faf4
090d010411fe00fdec
000201020303020304
fffd03fffdffff0100
0102ffff0504030201
fdfdff00f8fa0201fd
03010406040400fc02
ff0000010401fefffe
fcff0306fff8040600
02fbff02fe0102faff
010507fbf80304fe01
0300020afb0af8ebf5
0700050df80202eef7
f8fd0afffcff07fdef
040104090b09fefef9
fd0001080200090a01
fcfd0c0605ff02f6f2
fd03fc07040cf80305
fbf3f8eeedeef7f2e9
f707f9fc160afaf6f6
fbe6edffdfedf3eaf3
ee011b04fdf80a0bf8
09ea02fcdff802e3fc
0c13131c2419121b11
f0f8100cfd000707f6
fdff01ff1209fc03fd
fbfcfeff0303030403
10180efbf1f7f3fcf5
f4f8ed0005fb091307
f7e906f70403030a08
100411fdfcff00fdfd
fefdfe01ff02feff00
f8e0fff70208ff0207
fd0b00f803fb050b00
fd0406fc020bfdfd01
fbfcfe00fef801fcfa
040403080608020202
0402ff0103feff0401
00020003ff030103fe
03fbfcfdf9faf9fe02
fb0000fefb0202fd00
00000300fe02010102
fd05fefdfefdff06ff
fcfcfbfc01fdfcfbfe
fe030602fd050000ff
0301fffe0100030402
00fefc01fd01050001
fdfd03f5eff6fbfaff
00fafefbf8fe01ff04
030c04020100f9f2f3
03fd0001fb01feff03
01ff00fefc090105fc
06fefefdfafcfdfd00
ff01f905fffb01fd01
ff04fd1600fd0d06ff
f806fa0e05db0f02e5
fb00fef9feff0102fc
f8050708030004f8fe
00faf9000504030500
0703f4080603080001
fb0307f8fd04fc0200
fefffcfe0606fc01fd
f6f9fcfcf6fef4f1fe
0bfcf307f5e3f9e8df
f8fb04fafb02ff02ff
fff5f20d0bf6050803
fe02fffcfffffd0000
fd0000fe03ff01fc02
fd0000fffefc01fe02
01fdfd01fb01fcfd04
00000100fe0003fdfe
000002070004ff0201
fffefd0100ff030000
020002ffffffff0301
fdfe06f5fd0501f807
fe08fcf4faea131411
fbfaf1faf8eef4faf6
fa04fcfe06fbfc0604
fff8fffff6fcf5eef2
f90f01f703fff9fdf9
fcfcfeff06f8f9f7fa
fb0cfae901ef000d03
f5131503fe0c01fe0d
f40c02f615fe03150e
0bfdfbfcfffcfdff02
0400fffd03fcf902fc
fff5ff03eafa0bfcfc
e9eff4fbfdf805fcf6
fef4fc05000af7fafc
020e01f6f1f4ff0802
09f9020c020100fd02
0510fe06fb0af4d400
fbf103f1f80afe0711
010805fefe0502fd01
f4fe01f3f4fd040efc
efdfeffef3f11113ff
0d0708090507f8f8fa
050cf80304fa04fbff
fe000100fd0503fa01
03fefd0708fef7060a
fffb00f4f2f7fef6f9
fefefefefdfefffffd
fefdfe00020300ffff
faf6fbfffffa03fdfa
020502060605050505
01fffefdfc02010106
00fffef907fffc01fb
040202fff6fc070506
00fdfefd0d00fe0aff
06100901f5fbfefefc
03ff02fbeafb04fc03
fdf703fff3fa01fc01
ff0401000304020201
0000ff03ff03020401
fdfd0200f701f6fe07
0e00f90a00fa07fe04
ff020103fe05050009
03fdfffb0002010000
0101f9f5010600fbff
fcfbfff2f908fafafc
02fdfb01fdfc0202fe
fefbfaf7fdfefaff00
ff070207fff803fe0b
0efdf71808ea0af4ec
fbeff3fdff05070508
fafe04fe080cff0902
0903fd0402fefafbf6
fefd01fcf700fa0109
ff04fc0604f60306fd
fcf4fefaf904fe01fd
ff0300fd01ff00fffe
fcfffffc00fcff04fe
0001fdff03fbf9ff05
04010101fd01ff0102
040604060807030504
020202030601030304
ff0102fdff03010001
01fe00f9f9fcff0303
02fc01f70bf7f508ec
000d02f3fbf6f80805
000efa03fde9f00b0b
03fffb010500f7fe07
fafefbfe0dfb040501
0601030cff0cfffdfd
fa02fcf0feecf6fdf4
ec02f10424f8ff0901
eafbf9f70002f9f7fb
f9f3fdf50300fc00fb
1d14110808010b0f05
1404020af8f502ff09
080d07070705030904
04eaf8f2f6f4efe8ed
0808020607fc07fd07
f502fb03fbf9fbfef1
09fe04fcf4f904f105
030503001105fbf9fc
f603fa0007fd0bfb04
00f30000fcf6060200
01fb00ff03ff0305fa
0b0e0702fe0af0e900
fefbfa0201fc0501fe
01f3fefd01f50305fc
f5f9fffdfcfb0005fe
01fe0001fef9fefffa
fcff0203fe00000502
fbfe04f9f5fc03f6f7
fdfbfefcf1f9fefafc
0309010b0e04030f06
030300000304fd0001
04020302ff0100fffe
fafefe021102ff03fd
ff01fefc0401fcfcfd
00050301ff02040600
0403fbfd0601fefcfd
00ff00020305050506
000003000400fefe02
fe00fcfd04fffdfbf9
0100ff02fefd00ff02
f60405f3000cf70002
0401fdf90200fbfbff
fc030304fd0101fdfe
f600fef6fe03f7fb01
02ffff02fd02fcf902
fe00fdfe0503fcfdfb
fefc04f9010dfc0105
ff03ffff04fa0504fe
f5f900f30003ff08ff
0203fa0204fe010501
02fbf80606e80005f6
fd02010202f3020105
fcfa00fdfb01fafffe
020d02f7fe04f5f0f7
f9f400fbff07ffff03
07060406fdf9faf4f4
fffffc0102fdfffb03
01ff0102fe01fcfc01
fdfefffffcff0401fa
0203ffff0301fbfdff
feffff00fe0103fdff
00000001fcfffeffff
00020001010201fdfe
fcffff0503feff0200
fff9fa060b04fafdf6
eefc00f8feeb131a00
fa07f6fe08fb0505f2
fb03fe0808ffeffbf2
fd05fd060201fafbfd
fcf503170e1503e2f8
00fbeeeb00f5fe1c19
fbfb01090907060afe
12100c02160a08130b
f1f4fbefeff1fbedf0
0d01fc04fdf4fe01f9
f8fbfdf1fff703fe03
f9f9fffdf9f103fc00
0001ff0b0b11020202
0dfeedf1eae8f2ebf9
010106fffcfd070700
0bfb05fbf2f9f805fa
fd0102fefefe060203
ff0500fcfefb01fcfd
04070ae9fc06faf9fb
ff04fe030008040001
fef70ce8ebf2000402
ff00fa05fefe0602fe
fdf701fef7fffd0a04
fefafb00fbfcfef9f9
fcf7fbfdfaf9f90109
ff0201050401fd0603
020002fefa0300feff
0301020601000104ff
fdfcffffff0100ff01
04030201fd0206fdfd
04070207080402040b
00ff0002fb0102fc00
f9fb00f4eff6fbf8f9
01f5f80104fe03ff06
020101fdfcff0004ff
01010207fa06020103
f3f703f1fc06fe01fe
020200fd0500fefefc
ff0302030305020302
fdfffcfbfffe0002fc
08f9f508f8f4fe0204
0402fd0204fdfe0401
fd030506f30108f5f6
0001010406fdfcfaff
f3fbf9edf8f0fcfcf4
f8fe01f9ff0003fcf7
01010109fefdfefdfd
fcff02fc0201fcfefa
190eea13fed40aefda
fffb0208faf702f6f8
00fdfcfefd0dfc050b
f90207f40908f8f603
f0fe08f70814fc0209
fcfd09fafe0cfd060c
00010a010b16010906
020404020103000100
010302ff0304020501
03030503000305ff02
03fd00fd02fd0201ff
01000301fc010300fe
fefdfbfbfafffcfe03
ff0202fdfc0100fd00
0101ff03030002ff01
fdf1ff02fe02fffb00
f1f6faeaf3f8f809fd
ff0005fcfdf90b05f8
0009fdfd14f8ff01f7
00f6fffe060601fc01
04f9fa020701f5f903
0af509120d18fdeafe
010300f70307ff0610
f8f4f706f9fcfdfafa
091509172412ff0d04
f7fa0107fcfb0a0101
090e01f1f5f6ff0b02
04000510ff0006f9fa
1407fb07fa00f7fe0b
f6f6f512071002faf6
0a070006fa01fe000c
fee8f5f7f3ef0c1209
f9f3fcfcf5f2110ffe
01fb05020001000505
f702f609140009f805
e9e1fdf2fcfc0e1407
fde0f20407f6061306
010102f605f2040f05
fdfcfb01f9f5ff0b04
00fefd0501fc010301
0102020801fffe0402
fffdfb0a0b01030d0b
0202ff0101fefe00ff
fbfd01fcf7fefffc00
04fdfdfdf8fcfefafe
01fcfdfefdfcff0001
f7fe07fcf2fd05ffff
000106f9f403030101
ff03fcfcf9feff0202
fd0300ff03fffffefe
020102040402010200
0512040b1f0e000603
030302050000050302
fffffcfa0006040103
fdfefcfc0200fcfffc
f3fd0edc0021fbff05
fef50400fcfe02fffe
040301fc040200fe04
fe0004f40009fc0103
fe00fff60305fdfffc
0b0c041520020b1007
f7fdfcfdfbf80101fe
00020503fffa02fffe
fffef70505070a080a
02f8fa050b060c0bf2
fe010001faf80301fe
fcfd02fe0409010101
fbf80000fd0a070100
fb0308f60814fa0204
faf9fce8e4fceffe03
fef902faf806fb000a
faf9faf7f5f7fefbff
fe02fe0003fe020003
fa00ff0101fe00fafa
000200ff0304ff0302
fefc00fbf6f9fe01fc
0100fe00fbff02ffff
000103ffff00fffdfe
02000001ff000003fe
fa08f8fe1afe030c00
fe0a00fb00f7f700f3
f5f6000afcf5100cf4
fdfefefcf5f8fbfe01
fbfef9070802060b02
00fcf60b0902fffe05
05f3fa0dfcff04ecff
f4fdf9f109f9f808fe
f4f9fcfdf8f6fffdfd
fcfefafef0f500fdfe
ff09f61509fd180904
08fcfdfb13fafbfaf9
02010400ff0000fbfe
08f7f20afd00fff601
1a0f0a0f030c0f0301
1210030bfb030c0904
09100f06000cfaf5fa
05050b0801080201fd
05f90b02e5f9f5fc01
fcfafbfffcfc040405
f9fcf8050500000702
01e7fafffff1051309
f7e2f7f9fafb071003
05ff0403fb0004f701
00010303fdff0301ff
0000fe0000fdff00ff
ff00fcfefcfcfffdfd
02fc00fefeff00feff
ff0003feff07020001
08040b08ff070e0502
fdfafffcf2fbfcf6fa
fd04fefdfe00fc0103
f9f0f703070a040d08
fcfe03f6f608030100
0204fc03faff000201
0105030805fa0206ff
fcfdfcfc0806fcfef9
fc0000fd06fcfdfafb
fffffffefd010201ff
fbfefffd05fdfe02fe
03fb01fffa03fc0103
fffefb0106f9fffef6
0104000700fcff01fa
f7fe0400fefb03fff9
fcfafdfbf900fbfffd
fef901f5fcfe000201
fafefcf8fef2fefcf4
12ffe72af3cdf6fa01
02f7f70e09fe060bf6
fcfe06f903120000fc
fcfc09f80708ff0102
f4ff0af20312f9fe03
fd03fafdfcfe00fffe
fcfaf9f9f203010408
010503fc0102fc06fd
01f4f704fafefc0107
0100ff02ff0002fe02
04ff0305fbfe04fe04
0001fdfe000601fdff
03fefcfcf802ff0103
fc00fcfe040000fcfe
ff01010004ff02fffc
00fdfe00fe04040001
ff0501060804030602
fe12fceb00f0fd0906
05f7fb0a0508fbf5ff
f5f5f9f2fffeeff6f7
01fafc090609f9f4fc
050803fcfef2f80205
fffffcfc0001f1fdfa
02fdff08030c050110
fe0607fafff80a180b
f908fef0f2eff70402
fff7fd12f80c05fa03
0202fdfa02fbfd0509
0df6f50ff901f9f60a
fc01f6040cfcf101fa
00fafdfb04f70302fc
fefffd0000fef9f904
f50504edf1eae2edea
030e02040201fdf3f6
02e6fff4f4f5051307
04e9f712faf30e11fe
fbd4f40004fa060f02
f60100fe080506fe05
0402f8fdf4e8fdfdf7
07f1f2fcf5ef040afc
00fbfe0b040003faff
