010304f8fcf8fff207
f6fc09f1fe0efc0106
0306fffe00fef80002
fe01fd0606f80605f2
f6f5020e00020301fa
fffef6fc04f5fd08fc
020304fbfafd00f9f4
0b050007dbfb09ff07
00ff0df8f41efbeee5
02f3fd0701fa0401fd
fb0407fbf90105fcf5
fd08f9091504f7f306
01fb02060903f4fe02
05080cfefe1100fd0c
03faf00406e40014fc
030bf7062700f50103
070303fbf802fb0000
020700010b03fd06ff
030502030703fe0200
03010b03f10c07f608
ff0001fa0403f6fbfe
000000fcfa02fefefe
fffcfefdfc0300ffff
060203fdfefd00f802
f4f101ffe5ec0b1104
fcfcfef4f80602fffc
fefc0101fbf9000100
04fbfd0c00f3fe060d
1100f8061c08f0f303
06fefcfe2007f6ecf7
010906fef2f40703fc
e5f7050acae4111602
01f2f9f8f00003fffa
f8fcf8f5eef7f8f8f4
fcf8fdfdfaf7f9faf5
00ff000a050500fe01
040900070a07000306
06fbff0f02fbf60e0c
00f80306fcfefdf605
f2f6fcfa0efd0cfef2
f8f9fa050e05fb0201
f9f902fffcfffcff00
f501faff03fdff0405
ff08f8fe1bf0eff8f0
f000fd06120cfc0900
0103fcfa00fcf705fa
f8faf5fd09fef900fa
ff01f9010b02f8faf9
04f9f00005fa04ff00
f70707ff000b010206
ffff00fc0206fe0100
ff02fb10fff409fafb
f8eef4faf8fefe0400
0006fef6f80504fd0a
010104f30f0df30300
ff05fa09f2ee03fafd
0006f603f2f20af802
fe010505fe0303fb00
040405040308080405
fdfb02fafe02030106
0401eefcf2efeffbfe
0401fafd0303090e03
050507070702020504
0304f90501f601faf8
0306000b0afb03f9f2
0c02f116fee0050006
ff04040805f701fdfe
fbfb050809fd01f900
0300000600fefd0307
000300060801030102
00fafc0e07f8fcfafd
0b06f91904e908fbe8
fff7f30c06f8fafd00
ff0a0befed0ef8f2fc
0004fc081e07f600f9
01fe0d02e5ff0af8f1
08fd030402090106fb
ff04f8fe01edfbfafd
fffe0803e6f607f9f3
f702e8072b11e60f18
00fe0203fdfd0a08fc
fdfdfb030900fafff9
0406ff0004fbfa00fa
fcf90006f5f3fb07f9
0208010406fd0c0905
01ff02020000020201
fff5fd01f9ee020704
fbfdfc080c06020003
0f0a00ef000af5f5f8
00f903fb05fefff801
fcf20505fef5020407
1100fc04110cf3f203
f41010f4fb00010400
060b070405090000fe
0d00f1f80d0ffcf8fa
0afc01fd04f3fb03fa
0607010c0e04080605
ff04fe020b0103f506
fc09030a06ff0800fc
06fffbfb0303fbfe06
070f02151712f2faf5
fb00fcfbf5feff03ff
0003faff0100fff804
09080f0b201113160f
f6f5f8080602fffefe
f4eef3061304f1f4f0
f5fef5061107fb0d02
fc03fffd04ffff0303
0503050f400efc04fc
04fd04fceffd07fd0a
f9ffff0208fe0000fb
ee00f6050a03f0fcf3
f7f902fd000303040c
0bfef8f90304ff0102
0606f6080803fcfc01
f4d2fbe7f008030704
090906fcfcf11c14fd
fdf3fdedfbf8f7fef9
f0c4faf3fa08040d04
f5fffd0204fcfd080e
fefcfbfd030003ff02
00fcfa02f9fc14040b
08040004fbfb07fb00
05f0eeede8faf2fbff
faf6fc090506fcff00
020102fc0601fc0503
03ece1eadceef3fdfe
fc0201ff01fd0401fd
f10504e905060afcf6
eefffdec080a0700fc
feff03fdf5faf7e7fa
0a07ff04f8fdfef4f2
00fefb13fbf901f7f5
f5fc06f80100f9f4f1
f4fb09eff809f20703
fb0108ee0d0d000a00
fafe0ff402fd03fb0f
08ede41517edfc1009
03ff0c0800fe0f2006
fbf6ed0111e3091ffa
fdf401f4eef7fcf6fd
faedf204f5f0f3e6ef
01f3fcfef2f50d15f1
03fe000608f3ff0cff
0201fcfff6fefefdfd
00fffe0307f70007fb
fdfefff9fefdfafb03
030202070300fefd02
0102feffe9fd08f9fc
0506fb09020200f802
020504faf5ff060406
f2edfefefd030afffd
e60304ffdc000b00f2
0809f8fe0206f901fc
0c050801f7f400f3f1
0201fc02eaf7fffef4
00f6fb010100f7ff0c
16f0e9e504fef8fc03
eff6030dfe03fdff05
06f8f8f8100afbf703
fdeff2e8d7f0f2f1fc
03fdfb010ffbf406fe
040b08f6f408fff702
01f707040105f9fa03
01030307fd02060907
fef9f9fef5f2fcf2f6
f5eef4f3d2f2ece5f2
fd07020102fcfe00fe
fc07fb071101010800
f9fefeff07fe030904
fe04fb070afe0300ff
0304ff010702fc0402
f9f9faff080100ff04
e304ddfb21f5e810ee
03f2feeedeeb02f500
fa09fdf506fbf90cfa
f3f514e6e415fcf5ff
0b0f0701db03f4f505
04f1ff080106fe0305
fffdfcecfffcf3ff01
e5fd050309fc0c0900
e8d0fddbf717f40d19
0502fe00f500eafafa
f80e0fda020bf5f908
0500020902040404ff
fdff040a0109fefcfe
fffafbf6edf5f3fcf8
0300fdfefb00020500
f8f5f0e0e5e8eefdff
09f2f1eae9edf40106
fffe04fdfc00fb0706
060b09110b0a0401ff
0000fed6f41af5fb0e
f2f90ce80019f8fe07
0b0403fef112e8f710
fd0202fdf502fcfc06
f7fe03fe070500fdfe
03fbf60a00f30904fa
ff0403061703071205
fdff0503fdfe02f6f9
09030c0ae9e907e8f2
03f8000c00f30712fe
fdf8fc02fce80b21f0
fb0002fd0700ff06fd
fef9fffe07faff0003
040105f6f801f7fd06
fe0401f8f209fcf6f7
fcfe0c00fb010001fb
060403faf7fb00f602
00fef901fcfb030400
ffff0102f9fffbf9fe
e4d4e3c9fa09032d08
1a0b0ccaabf2d1b4f4
fdfb00f5fcfefffbfc
0100fffcfbff0301ff
0701fef7def6fbf1fa
f0fd07fedd061013f4
04faf000120b01fefe
000905efde06170af3
fdfc0300faf7ff0200
050f08f5010cfcf9f9
f40af7f7f1f80603fb
fffbf5050c09fafa03
03f60502f8fefbff09
13fb0801e8030af810
fef305f70d0a0206fd
05fc07fcfb070303f1
f8ff03fc01ff04f9fc
fa0000fb01fdff05fe
fc01fd040202fefc00
fdfafcfff7fbfcf6ff
fb03fefbfbfb01fa00
03ff01f6e4f3fef302
fd12f7f218f4f612f8
f80001f909fdf103fa
fc02fcff09fbfefc00
efffed051c05f509f7
e8ebf4f2effdf1f9fa
f702f7f905000004fd
ef0ded032407f30ffa
08f803fce70106fffb
0afbff00f70900fe0d
fd0c0cfc21f2fef9fe
0c09fafb0a05fe0301
00fafbf2fb04fa050c
09160526f7e405f2f3
f7fffee7fb15ff0208
faef00e10602f90301
01fa06f6ff08fb030a
010407fe0504010404
fc04090e040907fcfe
0409fc0b06040a0007
03fefe000000fdff01
f702fe050201fdfaf6
07000101fc02fd0003
0cfff6f5eef1f8ff05
0600fa0af3ee0cfafc
07fcf9020203fc0001
0a02fb060cfcfe1302
ff0500f3f1f9f8eef6
fbf9fb0b07fb0905fc
0800f903f7ebf8f3fc
040100fc000900fefe
000305080cfbfdeef2
0a07f00210f7f90500
ff0700fe1008fcf804
00080af3e81205f4f0
0801fafef9fbf7fd0a
f900f401130af6fe07
040601f4e4fd02fefe
ff02020109f70007fc
fbf60202eff0000305
ff0202fb0002feff06
fcfbfe0708fd0603ff
020803ff010200fd00
fdf8fd01f9f6fe0006
02ff0101fb0502fe02
010005fcfefefffe01
fffdff0007020507ff
030204070607060804
fa0f0f03e4f60209ff
070f03f6070dfbeff9
fff6fa062910eef617
eb000de9d5dd160bfd
1506f3101c0df5fc06
0e1308ecfff004fefd
f901fb01fcfb0004fe
1205faf1fbf4fafcff
0109031214050a1608
0403010604fbf8fb07
fcf800f9eafbf1f5f8
fcfffff9ff00fbfbfe
050b050c0c0a0e0905
03f7ff00fd03f10404
fb0205f607030701f6
0a0d0507120905090a
f703f5fb0dfcf900f5
f606fdff11fdfc05fa
f709fa040d06fd07f8
fb02fc030104040901
ff05fd0105fffc02fd
f4fdf8051608fbfdf9
fe02f9ff0c01f905ff
fc07fe0207fe0003f9
0bf90006070cf70002
f7f7f6fb0004feffff
f9fdffe40501fdfd04
fdf802f9ddfe02f9fd
fb0204070004020100
fdeffe08fbfe030b09
0b0a040302f901ff03
eeed05f502fcf90505
0900fb04faff000107
0302f9fefafdf7fcfb
03fe02fffbfffeff03
03fdfff3f7faf90a04
0200fbfef8fcf9fc02
f9eff6eaeefaf40202
fd08090f050b07fb03
030307f4fc00f70605
ff02fe0404f6010001
f9f902f7fc05f3ff00
fefd05010702030202
010106f7ff0d010308
0afa06fad80102fc08
07ff0300ec01fbf906
1006f114f1e0fd0207
00fbfff8f9fefcfcfa
010d09f70815fae9f4
fbfdfbf4f2f701f4f9
fc010901eefe0901fb
09f60307ebf012fc09
fb00f4f1f6f2fee6f0
010200fc0a14fd03fe
021118f3f310fcef04
ff0002000507fef207
0100fe040401fe0103
faf8f8fbfbfa0a1002
040303082f09dcf206
fb02fa020100f5ed00
060505fff80000f701
040205ed0705f8f6f6
02f701fcf5f602f9ff
020003fffc00ff0306
fefb03020400010406
fcf4000004fcf5f6ff
08fcfa0d1305f2f807
f6fdfbf5fd11fdfe04
fcef01fdedf2000a08
f8f304fcf2f40e0903
fbf80c0ef2e1030d05
0bff030203fdfdff03
fa000101fdfa00f9fb
f9fd00f4f3f2f3edf7
0101fe02fdfcfa0002
fefe03faf7fcf4fffc
f5fdf7ffd7eafbeff1
fe0105030800060002
020201050d000208fc
fdfe03f9f9f9fff8f8
f5f9fafd0800000401
f005f5fa1806ed09f9
fcfafc00ff04fefe01
0006fff9fef7f8fafb
f8fcfd0c1105fafefd
01fe00040804020303
fd05fbfc07fefdfbfb
f7f6f9fef8f90200fd
fffdfefe0500060906
e5ecf6dc0b15f30d1f
03e504ebeb07fc0903
de0a0ff9110413f1ee
f8eefffe0dfe060e04
09fbfa080ff505fdfb
f5f7f6f9fcf806fdfd
fe0202fdf4f4fef6f8
070304010104ff0608
01fdfaf8fdfcfe040a
05fc00fcf5f5f9feff
02ff02f80202ff0102
05faf8f1f0f4f20102
0403fa02fdfa020400
0600f9fdf9f7fefbfd
09070006fe02fe0604
fffb0707fa0204fb01
fe01000201fcfa0802
03fdff2228021403f2
fdfb04fafffffdfe02
fe01fd0001fb00fffd
00fbfe08f8f2f8ee01
fe04000f04fafef500
00fa0204f5fa030501
fefb08fd0404f8fe07
0502030201f50c16f5
00fd0313e5f7fcf903
fefffd04040103fd00
09fef70004f8fff503
00fffbfc1117f6f401
000305f8f608fbf5ff
05f702fd010605f501
010a041c420b081600
fefffff7f1fc050403
00fe00f9fd0000fa00
020000000203fe0105
0c0b0df1f403e7e5ff
03020507030205f7fe
03040100fd0300fbff
fbf7fefd0100040afe
06fcfc01fd04fe0d00
fcfe07fe0203f1f003
1005fbf30c14efed05
fffd01010100fd0101
f9fd03fffefe000904
08f5fbff0afb020309
01fcfcf9fafe000200
efebf80705ff070408
fc0200020501010403
06fd0506fa05fd00fa
fffcfd01fefbf7fb00
000005010303020403
fe02fefefbfcfbfaff
010305ff03020803fc
fffefefafcfdfcfb01
f6f5f703f904f6f402
fb0dfcf91dffeafdf0
f301f7050a05fe0502
01040504ff02fafbfa
fb00fa040803fd00fa
ef09ebfc1dfbef08ef
fefaf4030708fcfefe
fcfafaf90605faf9fa
01fb0207ff0600fbff
10020311f9fb0c00f9
0efdfcedf80de5120b
f9fc01fefe020309ff
fbf6faf4f600fc0100
01fc0307020101fafd
06f2f40a0ff503fcfc
f2f002151ffc0bf801
fefc0b01f3f804fd03
00030afe0004fcfbff
07010403ffff020101
06ff01eff4fdf500fa
020005030406020205
fffe0200feff01fe00
0404f5fceaebf9f8fa
04fcf9f9f0faf90102
f7f9fcf60401fd0201
fdfa05f60007fb0704
01020305f0f6f9f207
fefd0003ef04fe0504
04fffd0beaf3f8f804
fa0806030b0bfffefb
0001ff010200020902
00fdfe0603f9040804
00f8fbf4fb01fc0108
0600feff04fafe0a01
fe0002fc020affffff
0403f7f53217e70103
0100fcf80d13fdfbfd
04fdf40d0bf2f80612
0005ed0cf5eff6f1ff
fd0a03f81726f0f507
fefffdfd05f9fe00ff
00fbfd0a08fd03fc01
f807050d03e50a0cf2
fffffe0100fd04fefe
01fe05e40205fbfffd
fefcfdf7fd06010504
fbfd02f503fa04fbff
020201070403040102
fcf9faeccefc020907
08fcfcf90900fdf702
04fb0100fceffd0701
f9f5060b09f8f9ff02
fbf302faf6f3070604
100b01fd0108f5f7f8
fa050a04fcfffffef7
03f5f70203f9f7ff04
0509fcf00e08f9f202
0305fffb05fe0100fe
fffdfd020705fd0100
0a13040f040a0a0708
fa020104060006fd01
030b050925160e190d
00f9f9fdfafafefdfc
090c080111050c0e05
fe01fbff0100f303fd
fb07faf906f2fb07fd
f9fefc080a0bf8f5fc
f802fefb060afb0300
0601fd070504f9fcf9
fdfefb030101fc02ff
09030003f9060b040c
f7fff2fd09fafc06f8
e901ecfc17f9ee04ec
060d0cf1f406f7f807
fef1fc0305fb060e01
0806f90a08030000fd
08fdfb1213f407fffc
f7fffcfb0a07020406
0710fc0deeeff5f5fd
01fcf9fe02fe00ff03
00f203ebf60df7fc0a
ff03090b0809030204
0609feffeee8fef7ff
0d03ff01f6f5f101fb
0800f205eeef020001
0200fefcfcfaf7fc00
f7f9fbf9f8fef8fc01
04060301ff02040606
02fcf6fef70002fd02
