f9f1f5fbf3f001fefb
040a08040906010402
fe00fc010200fefdfe
f9fafb0002030100fe
06f6ff04f1f2fffe00
04060a00050a030705
030406010807020303
0000f902fbf4fcfbf9
05020704030c06030b
f7ebefede7f4f4ebf5
ff0100fffefe01fd01
02fefb0201fe02fe01
04fcfb00fafdfcfd01
0500f30301fdfefef9
00f8f4f7f0f8f7fa01
040513ffff05090503
fd0102000002050601
030601060304030601
00ffff00fdfefefcfe
00fefe02fcff02fbfc
0004fffefd06fdfc01
02fffffffafefe0300
00feff01060101ff01
fcff02fcff00ff0200
0202fdfffd01fef0f0
fd0101fc000400fdf9
0001fdffff03ff0204
fafbfbfafc04fc0712
00000202fa0705fcfe
fefefd02031d06f302
0200000307fcfaf8f6
0202070405fc05ed0a
fdf6ff01fafdf9fefe
00ff00fe0100fdfdff
fcfafe000302f6fcff
fbfbfefb0206f8f8ff
f6edf1f5eff7f2f4f8
02fdfd000a01fe0305
010900fd0f07000706
f9f2f7f5fcf9fdf5fe
fff4fd0cf202fdf7f9
fefbfdf8f3f802ff05
010201fdff00fefafe
fbfa0606000b010304
e3e3eee3d4e7f5dee4
00f406fcf7f4fdfe01
05000b050c0c040808
fafffdfefd0102f2fe
00ff04060df705ff01
ff14fdfc0f02fd0600
010a010104fffaf8f8
05f0fd06f006010604
05f70304071002fefd
f5f811d0fe2ef40515
0a1ae41c16d90501fd
01fcf70a09d80c06f0
0309f507fe19f8f902
0c1404100308080005
0305fe03030201fffd
fb13fbff110eeef4ef
060c06eafc1404fffd
fe1301ea0809f6f1f8
07f9f50d0704f90203
01ff05f7f4f5fd0701
020400030003010202
f1130a082d25f201fe
fffd0200f80001ffff
06fafe01f5f8fefeff
080706030203000203
00ffff030201fefefe
07f9f902f2faff02fe
00fdf908fd0402fbfb
f7f3f0fcf7f8f7f6f6
fb0303010007010900
0f1016080f1115170c
fff2eef7e7ecf4f300
f40703f90502f80303
fe00fcfffbf8fcfafc
03f8eefdeef0f8f5fb
fb05ffff0501060afd
020703020505050305
0004fe030201fffbff
0508050600fc0200fe
fe05ffff0203fdff01
fb00fa030501fe04fd
01fffffffd0001fe00
0104fffe0303ffff04
000302040102030102
ff000101fd0001fef6
020306fe03fd02ff01
0201fd010cfdfefb01
000104fdfaff0707f8
05fffd02020102051b
fcf8fafe100efd0e18
0000fe01010b0703ff
fffdfbfcfcfb030214
faf4fdf4ee00f3f2fb
fef6f9fffb02040806
0d12fd0a2613fb0a14
01fd02fdfafefef9fd
01060508110dfe0807
ff01ff01f9fd05fe02
fcfa0201f6fa00fffc
0401f8010401fffefe
070304040afd070603
02fff6f4f6ee01fefd
f7ebeaebe7ebebedfa
fbf809ede6f208eaf8
06fcff11030812070e
01fb04fff502010204
faf71205efff06fdfe
000708141311021306
10fe0606eaf90005fd
0704ff0ef60707fbff
00fd030309010303f9
f3f90cf6f21401f801
04010cfdfe0a080f15
000003f504fcfe0100
f1e50cfaee1101fc02
10e2ea0fe9ea0804fb
fb0402090c080d0804
f1f2f01b36fafcfb08
0d0602fff3fb01020d
f103fefd0002fdfcfd
07040bff00060b020a
00fbfa132cee0d0bf7
f6e90408f5fe00fcfe
ff0303fc0c04f6fbfe
fa0402fb0704000807
fdfcfc0001ff000301
010405fcfcfbfdfb00
040502060506050908
05fffbfef6fe04fc05
fbf0fc02f802f9f901
fef8f4fdf3f10201fd
00090802100dfc0808
00f0f1f5e3f5fcf3fc
fe01fffa03fe00fe03
fdf9f1f9f3eef4eef8
00f7f4fdf4fefcfcfb
fcf8fafbfafcf8fe04
0cf1f1ffe9f6faed02
04f7fd05fbf8fdeff7
04f2fcf8ea0200fb0a
010002fefeff00fbff
040504ff04030000ff
fefefc0001fffeffff
ffff00fefdfcfc00fe
fffefafdfffdff0304
000400030201ff01fd
feff03fdfc01fdfdff
000201000400fffffc
000507fafeff01f4fa
020a0805f7f801fcf3
02fe0005fdfb00f5f6
01fffffefb00fe0004
00fd02f8fc03fd1806
f9f5f9fcfe00fef90a
0001fbfc0000fd03fa
000406fb00020201ff
ff0a01ff020301ff02
fdfafbf7fff6feff01
fb040afef70bffff01
00fffbfcfcf9fffdfe
faf501f7ec01fae6fc
06fe0712f9fb1202f5
0301fdfdf9f905fefe
ff04fefcfc05fe0101
000506f800ff040606
faf9faf3f3f603f904
090a00070f0c050911
fefcfaf4fef3f6f8fa
fefb0204f802fdfef8
07050f07020c0f0f11
fdfbfdf2f1f3f4eff4
0f0607f2f4f5030404
f61805fb1005ecfef3
fb0506f80408f50b04
fef1f1fce8f1f7f7f8
0c12e11b17da0502fc
07fe0003f8fe05fa00
f4eefe00eafefff7fe
fb0106030209f7fdfe
0211fffd0b02ff02ff
010af1ecf802f6fefa
0b0806e7f0dffe0bf8
fe000500ff200200fb
00fef5f9fefcff03fb
fd0907feeb0405ff08
f4fcf3fcf805f2effc
01fff8e9e2f1fbfdf7
ffff02fcf6ff0206ff
fefefefafef90000fd
03fbfbfeeef504fafe
030b0a060802ff0704
01ff0400fd02ff0003
02fe0301fdff060a06
060301fbf0f3fef9ff
01050a020609020206
fdf9fcfefdfe00fc00
030203fcfff801fb07
fd06fffd08ff000cfb
030302fefa06fb0509
0809fffe0307030c07
fdff07fd0606fe0701
ff0c0cfc0801070dfc
f4e7e5e7dde8e7e3f1
04f7fafff205fc030c
01ff0000ff01ff0001
fffffafe0200fc01fe
02fd0204fd000102fd
fa0000000400fe0001
ff0200000502020503
00fefefef8fcff0000
020300010803030102
010706071611040807
03020401feff04f1e6
00000004ff060002fb
02fd00000605fdfafb
02fdfffefefefef5ff
0000000100fd0000fb
ff0b0b07f2f807f2db
020402fdfd0afdf201
02f7fafc09fff70013
fcfa02fcfafe06fcff
0504fbfefef9030501
0702050006fc0402fd
03fd0503fdffff0802
0708fc0403f9fc09f9
02fefd030df9030dfb
fe0501000107fbfffe
f8fd03fdf000fffaff
040202050203070002
fe01fffe0702faff01
0c0201f0f9f5fe01fa
060403fcf4fd00fc09
fd00f90100fb010302
f4f3f702fcfff8f7fa
0001040a030604050b
01fffcf8f5f4f4f3f9
f4040ae4040bf2fe06
f509fcf90efef80907
0f0bf01a23d6050bf1
0502f3080af40103fc
010903010603fcfdfe
0c000700f3fbf901fa
e8f513dee92703f507
fcf6fdfff60104f8fe
020205f9e6f2faf3f3
f5f6f80614f6141ef4
0502f70bf3f0f7f8fe
fffef50406f9f6f903
f8e9f2081cf3010cfa
0bfc11f3e30dfdfeff
fa05fb02ff08020afd
fbf8ec0f25f4f4fdf0
040701060908060603
0008fa040c09fcfe05
010204000807ff0904
00fb02fef4f7fefafd
0100fe02fffd030206
faf8f9f8f2faf9f5fb
fa060bff0d0a0002ff
04feff02f8fb02fbfc
04fbfbfff7f905fefa
f8eef1f5edf1f0eff8
f7eaf0f1e5f3f0ea03
0605050106010c0508
fbff02fefffff7f8fa
fff9f701fff907fdfe
0b0e0e08070d0e0c07
f7f3eff4eeedefebf5
ffff00fffe04fd0104
00fcfe020100fd0603
fffd00fffd00fffffc
0100010200fd0103ff
fe00fefdfffefefefe
00ffff040101fe0003
ffff00010504040601
0101ff01fefe00fcfc
030a04050802fcfefd
fe0004fffb02000403
020102fe01fb0605fa
02060405f3fc06f1df
fefe0002f80a01fef9
ff05fd03f70f00fff2
000103ff01fe02fafd
0003030203f90000fc
faf701ff0b08000309
010e0d112d110c0b01
fcfdff05fa030806ff
fb04f9f900fcfbf702
010004ff0502fdff04
fc00ff01fc0200fefb
e8f3fdf2eaf002f5ef
06fb010606fa020cff
fa01f40202fb070a01
f8fc01f1f3f5fefaf3
f6fd03faf8f7f9fdf8
f8fd02f6fcfefbf6f9
010c0609130a0605fc
f9fffcff07fdf3fafa
0603f8faf7f9f90106
effbf4ebf2f4f7eaeb
1af3fc12f3f408fdf9
fafe0a00fb0a06fbfd
eefd0fe3041dfff806
0ff0fc07f5f9020804
f9df09faea0c010404
08faf6f9e601f9fc05
0109f80310fbfb02fe
0cf8e40b04e8ff0bfd
09f703fff701fcf6f8
03f5f401f90cfef811
f311fff20b08fd0204
fefa01f6f4f7f8f600
f2fe09f4f7f7f8fafb
fafd0000f8f8fff8fe
edf30b05f70a00fe06
fafafefcf2ef0b06fa
fc0503fffefcfffbf9
f3f803f4f1fdf1eef7
fefbfd0600010501ff
fd0707fd0a04fa02ff
fbf6f401f5f500f8f9
fdf4f9fff6f702fbfb
040504000404010909
000007fdff0301fe03
04030204050605050a
0a01fe04ffff040600
05f7f7fde7f8f5f501
03faf5fcf600fcfe04
02fb04010305000001
060a0e080b1408140e
00fd07fdfb04fe0603
050300030602010602
ff0002ff0301040200
0709030a0c0b040805
010101000302fcff00
00ffff020304fcfcfb
0201ff010203030304
fe0100fe0102fefffd
02ff0004ff00010000
fe01000000000100fe
0100fd0000fb0101ff
fbfe05f9ecf2fbf9f2
ff0006fffd04fa02f1
01fafbed03ff090108
fefcfa0403fb02fcf0
ff03000202f4fef8ff
02010a04faf002faf3
fcf6f3fa00fbfb1560
fb0406fd0b0cfffffd
fdfbfffaeff507fbfc
03fd0201f6fd0102fb
01ff0701f5fc02fefb
05000113fb02040100
08060804fc02000603
f707faf60402fef400
020304040005030002
09100e070f03070e07
fcfe08f6f2fef4f7ff
020506fdf7fe06fe03
fe0102eef6f2faf6f9
f2f8fdf706fff1fff9
00f0fbefe2f1f1f205
f7fbf4fafff6faf7f6
fdfdfbfaf0fafdfb02
fd000203fdfe01fffd
f8f3fdf0f708f3f107
fafd08f8fc1301f602
f405f6f9f603f70002
040102fbf60b10f903
0af5ed1100ebfffafb
05f4050ef4f7f8fafd
fffdfffeebf8fcf8ff
0606fe06050bfbf100
00e9ed120ff1fc09f9
f70005f8f7fc04fffe
0e2be2020905eae4fe
f9fefe1c060afd01ff
04fdf3faf801fdff07
faee0903f30ff7eb04
fcfdf4070705010803
fd0306fb0801000b06
fd070007110e060d0c
01fe0800ffff03fffd
fdfdfdfffafcfffefc
fefbf70205ff090a07
02f9fbf8eef807feff
fff3fbfbe6ee00f5f8
000606ff0101ffff02
f9fdfdfd0200050bfe
04eef5fae6fdf4f207
030103040000faf907
030504060908030703
fc0802fd0404fa0200
07080205070e030d11
05030b0a020400050a
fdfcf901fdfefffcfd
000903000c050102ff
0100ff030003fe0200
00010102fefefefe00
ff0201010001ff0201
fffe00fcfd00fffd02
00ff0001fffe01fffd
0103fd0001ff030101
ff0202ff01fe000200
04020805f0fa08f9f5
fc010103ff02f708fe
0007ff02f7ed0208e9
02ff06fffbfafffdfd
ff0304ff000200fb03
fffdfe04fefd02ff05
00eef7fb02fb011d0f
02010105fdf905fdfa
070c06060d0f06070d
0302ff03f8fa03fb00
0204040906fffb0401
fe000300fd0100fefb
fa00fb031007f9fbfc
fef1fefbe5edfaeeed
000100020106070102
01f402fdf2f9fbfbfa
010105faf3fa00fb00
02fcffe7e4e4f6fef9
06fef80006fc00fc01
04050507020403fc05
05fd04fefc00fefe01
f9e9ededecf9f0effc
f6e8f2f2e7fcf5e6f5
000806060909020807
041009fe0f06f9fcfb
000206020dfe040200
00ebffdfe20307fb03
fffe0003fa03ffff02
04ffff000700000afc
00e4ed04f0f404ff01
f8f1f90dfbf4000108
f50406f7fefa0008fa
fff2020412f30405fe
f3f3fcfeffe90004f6
faeef90be9ee0709ef
0106fe090d0a020404
04fb0df6ec0bfaf102
f7fb0a05fdfc020008
02f30409070003f7fe
0cfe05f8fb03fd0504
02060b04120fff0a06
fefcf9feeefa030003
00fc06fcf40202fe03
fef6ff01f2f60500ff
fdefebf4d7d605f8f4
01fe00fff7fbfdf9fc
01fafffffcfe00fbfc
f7fafefe0f0efc0c07
feedf5fbe4f9fbf304
05ff0503ff0c030a0c
06ff0802fe0e010c0a
0a0c0b0a0d14061209
040404040504040805
fafff9fdfef7fdfdf8
000205000507fc0006
0af8f701e90001f904
040101000101000202
ff0101fe03000100ff
fdfe000101ff01fffe
ff00010100000201ff
ff0002040102000201
0401ffff01ffff0102
01000300fe03fefd00
02020302fd04fdfefd
fe0405fffd0101fb00
fe02fd01fef502fbfc
ff010100fcfc02f5f2
00fdfe0404fffffd00
03010304080303f2eb
ff05060500eb08ebee
02fe010302fffffefe
fcfef9f70001f7fbfe
ffff01fe0402fd0807
020301fff90001fdff
050204fe0402fd0203
070108070100ff0306
fc0701f50904fefc08
fdfefdf9f9fb00fbfe
04030208ffff0b0101
fcfdfdfdfef6050d04
030b00f700f90d070f
0101fdfef00202fc05
01070202020503ff08
08f6fafdf206fef507
fcfefd08fc02fef6fd
04fbf5fcfcfdfafcfd
f7faf3f5fbf1f3f4f5
fafbfae7e5e5f2edee
fc0f02fd1005ff0200
01f3fb0af9f903f7fc
fdce1003df0802f807
09efee13fdf4ff03fd
fff9f1121204080605
f8e600ea050afb1206
eee4fff1eb00ffff09
fefc0afbfc06fcfdff
ff10fafffbf40102ff
07fdfcf7f4f400050f
10fd0cfe0d03f909fe
02f5f4f5050dfc0008
0a0304faf7f00f08fe
fdf0fffef8f509f9fc
020702000306000406
f7f5f5fef4030a150b
