fefc0403000104ff04
fbf6fcfff7fffcf3fd
00f8fdfcf8fb000501
f9f700050101090a06
f4f4fbfaf4fc02fff9
0402fdff02fcfdfc03
fefc01ff0a09020705
fc02fdf6f1f5040200
fefd010301fe020404
00fefdfeff00fe00fe
fc020003060200fffd
f5f2f7f8fc04070e0b
0e0d03fdfe05fbfffe
fdf9fbfafd04050401
fafe000002fbffff01
fbff0502020001fefb
f803f9fcfff30fffec
01f5fafbf103faf902
ff0304030905fc0300
0406fc03fef8fcfef9
fc09090809040afb00
07f30517edf30fe6fb
02fb02f60e15f81201
f60905f8150df9ff02
01fd00fefd000200ff
fffd02fdfb04fdfc02
000100000402010502
0408fd1408ea1001ef
01010401f90405fe07
0000020001ff01ff01
fe0000fffe04fe0102
fefe0101fe0100fefa
fd0203fef6fafff902
03fe010300000103ff
020300ff0502040706
06ff04fef601fcfc02
fd010501fe04050100
030101040105feff05
02fd010203ff0301fe
fbfcfffff7fc01fffd
040301070503fe0206
0005ff010c06fc05ff
fafcfcfdf7fcffffff
fefffdf903fc000800
f4f303f7edfb04fcfc
fdfe050009fe0204fb
fffefbf3f5f1f5f3f7
0100fd0303fff8ff08
ffeb0607ec030600fb
00fdfbfe04fbfd03fe
fcfefd020003010806
00f7fa030d08fe0200
f9eef9fff707030b06
08fe0807effffe0503
fdfbfe030f00000aff
00010507f6fbfef9fd
0604000306fe060a02
eeebf3edebf0f9f6fa
03f60005fd0206f902
f7fdeaff08f5f501f5
05fbff04fe0303030a
f9fdff07fafa08f8f2
04f5fdfdf6ff03fdff
fb01faf90704f70002
0808010e0d0b03fd0c
fff7fdfff9fd040906
f8f3fc01fcfb0404fe
04f8f8020604fc080a
09040dfaf6f6070d04
0100ff03fd01ff0000
050200f9f900fffeff
00fcfefaeaf4f7f7f8
fe0100fbfefe0102ff
04030102fcfcfe0100
080c0901fdfdfdfcfb
fdfbff0002feffff00
fafef80303020a090a
0407fffefffdfdff01
fffff6fefc00000406
fe0302fd0204000204
fc00feff05f70002f3
fc0bfcfc14f01109ee
010405fe0506f503ff
0602f905f7f408f6ff
ff02090c0b04050107
fe0302f9fffffb0303
0504fb07fcf406fd04
f8f309fc01040303fa
ff0001ff0004fefe07
ff02010405fd0602f9
03ff0004fa02040007
00ff04ff030a01090f
04f70409fe0909fa05
01ff02010101010104
f6f1f7ebe2f7f4eefa
fe0102fe0205000200
0300fe010102010504
030800000500f7ff02
fbfdff01fdf90506fa
0101fe01f000050603
01fdff02fbfd10090a
000200000101ff01fd
fbfd040bfafe0c02fb
fffcfb010502ff0402
f8f1f8fcf6fafdfdfc
04fe0701f802fefbfa
f9f0f3faf2fbfafa01
fc0003fefd000301fd
fff902030604040d06
040701030002030603
fbf9040500000102fb
02fbfe02fbff00f902
faf7f8fd07ff020b02
fe2c0af3f1f5fddff8
f9eaf6fffcfd050d05
fcfa02fefc06010101
010800ff0700011006
0102fffcfbf7fefafa
01000801ff0a050401
fcf0f3fbfbfbf7fefa
00fd02fffffe050400
fe08fefe07f70104fe
04fa0104fa0308040e
050502040501010200
fb09ff031902fe0705
faf9fffcf9f7f9f5f5
fffefcfbff04fcfd01
0b020a06fc03070309
fff8fbfafef8030500
0107fafcfb03fcf9f8
0202030202fefefffa
0304fefe02fdfcfbfa
03f1f6070200fd0907
f2e0f6e4d1eaf5ecee
fcfefd03ff030403ff
ffff0000040000fbff
ff02fe0101ff00fd01
030203fc04fcfafefc
feffff0105ff000101
000d0d0003f9fffcfa
fa0000fdfafd050302
313d2500f3eff2e8ef
01fc02fbfbfcfffe01
0210050200fcfefcfb
01effbe7ff12f8fe03
07f107eaf00be004ff
fff5feedebf8f1f6fe
fdfa08f10e1df6190a
fdfffe0106080cff02
00f5f6fbedf204fefc
04000008f7fd00ec02
03f603f8fa09e90509
ff00020100010200fd
00000003fdfb00ffff
0203ff0401fe010000
000002020503030202
00ff00fffefcfe0001
fefa01feffff00fe04
fd000100fef7fffefc
f8000cecfd200304fb
fe05feffff00010001
fffbfffdf8fb0601fe
030001000200fa03fd
010103fe0500000206
060302fafc05fffbff
fc02fdf902fff9fbff
fb01fff8fd01f3f6fc
02ff0400f7fd0d1204
fcfafdf6f3f300fd01
f5fbf7f9fcf504fe05
0106020102f9040200
06020206feff040408
00ff04fffe0506fcf9
f8fafdfffc00fe0200
01fe0303fafefcf2f9
0000fff0f0f4fc0702
ff0dfffb0bfcfe0907
fadff60100f6060803
000102fffb09f9ffff
fff4f8fbfa01010707
02fa0502f403fdfb02
06161100fe09f6e9fa
08f1ff02f3fdf404fb
fd04fafd0802fc0102
0304110b0806070704
fefdfdf8fcf9000301
01000300000101fcfc
060202ff00fe090400
fa0503ff040202fefd
f8f201f5eff4f4e8f6
ff00f6fc09fcf2f9ed
03fd0206fc0403fb00
08fd01f9f8f9fd01ff
0303ff060603010206
000103ff0a020004fe
fefdff0103020404f9
0113fffd0806fbf2fb
fb07fff6ecf5050c03
fef4fc0806fd010702
02fbfe051608f3fafa
0101f800fd05000004
050303fdfbfdfeff01
fbffff00fdfefefd03
000307fc00fff9f8fc
0100fbfffffef9fbfa
f7eff7ffff05090908
fefffefb0401ff00ff
fff90403fe0000fdfd
fd00ff01e700f2ed0a
06f9fafaed10f8141b
f8fc0bf6fa1bdb171b
fe0102fb0306fa0006
0201fbfdfdffff0604
fc03000603f810f1f0
0bfcf711f2e802f2fc
01fbf806fdf60dfc03
0001000102000500fe
03020202ffff0201fc
ff00000000fd01feff
04050d010b110b11ff
fffeff0602f30101f7
ffff010001ff0201fb
ff00fd01fffe000004
fa0309f90101f80505
fefe0502f60003f9fe
04ff02030000010103
ff010500fbff03fffc
140c0d18182000f808
f6e7e007fcf8100c0a
0100fe0101fdfe00f9
02fffd02040102ff04
02fef901fd03fffb02
000502fd03fefa04f9
fe00feff01fa050d07
05fffff6fdf9f10101
01040204fdfcfffb00
f8fcf8fe00fe021104
04fb0302fffffefafc
f9fffdf7f9f7f9f7f4
0c1214fef9fbfafcfa
00fbfbfbf2f203f1fb
0a0207fff2fbfffe03
08060700f4fe0107fd
fdfffc0501fc0101fe
fdf9fefe1401fa09f7
07f3fffaeafa021301
fdfafffc0a03fb02ff
040402ff0806fff6fe
fb02f60b09000201f8
03f80304010604fb03
0600f7fbfd00f6fb02
030002ff05fcfefc04
01f906faf5fdfef901
00fffa04fcfe02ff00
f3f20301f90106fefd
04f3fffcedf205f5fb
fbfffefaf902fbfbff
060f06f9fd00fbfaf5
050104fcf7fefafafe
fc0404fafb0305fb00
02060306110a030002
020505fdf602020505
091202050800f8fbff
ff02ff070902010406
f9fbfc000202fefffe
fcfdff010102000000
0a09010905fdfcfcfc
f8fcfd01fafc060502
03fafefffcff000302
fdfb03fe0202fdfffd
f9f8fa02fffd01fefd
0403fffefcfcfbfafb
f40508fc0af70af7fb
0905020bfaf801f9fb
0503fd0decf0f9fb05
fe0009fc040702f508
03030704fef809f9fe
0afdfd08f4f7fee5f8
fcf8fdf3040afa0701
fcfe03f0fd02fb1107
0403fd02feff0303fe
0300fd02010302fe01
010200020100ff0002
fe01fefffd0002fcff
010203010401020302
0300fd02fffe02fe00
02fe0000fe00fcfc05
ffff00ff02feff0102
fbfefe01fcfd0603ff
00020201fbfb050402
fe0001fe0002000005
ff0304fcf1ff02fcfc
020002040103ff01ff
fd0101fd0201ff0002
fc00000101fc0605ff
010202000808020204
070a070102fffefcff
010c07090f0908170a
030003fbfcfe070601
0001fcfa04fef7f801
0100ffff01fffefc03
feff0303000102fcfc
030cfe04110d04140c
f9faff01fdfb090700
f4fcf7fef4f907fef7
f9f6f8ff03fcff0b04
fbfd06fdf2fe020201
00f9fd02fbfd04fe01
03fffb05ffff000505
0505fffdfc03fff300
fdf5f5fc01fd020b01
ff020101fd06030502
05f4f102f5f801ff00
02030602ffff0000fd
fe030703fe01080203
03feff00f80001fd06
01fe0402fb02030505
fafb01fdfcfc010202
0e06020503ff000402
fefbfefff8fe06fafd
ff0004fb0200060403
fcf0fb0f1808040d07
fc01fcfc0404fefe07
05000301f701fdf8fe
01f9fafdfc02060201
f0f003050c020e0c03
fe08ff01edf5070103
fffcfffe0001ff0e08
fefd00010400020200
fffbfcece3ebefeff5
0606ff0500fcfafafc
0300fb030000fe0101
02030200fffc010100
fdfbf9fcf8fbfe0002
0a04010102000000ff
04ff03fefcfb010002
030701040b01050003
fef5fcfef1f9fdf302
04fefb04fafa0600fe
0cf803fcef03eef90b
030908100c01fef9fa
fb0104fe050301f6f9
f116010818ec0408f8
05000003ff01fdfafa
0100ff000100ff0302
f9fe05f90008f80005
0b05fd030901fe110d
03fe000401fa05fdf8
02ff00ff0101010301
fef8fbfef4f6f9f8ff
feff03ff0100020001
0101000200fe010101
0002ff0200ff020102
04fff9010703f7ff02
d5edfac49ac600e5d0
fd0104000206f9fbfb
fffe00fe01010302fe
f4f5f4fbf6fa030601
f8fbfefd000101ff00
010208fdff00fefafe
020303fcfc02fdfdff
0201fffdfd020c0f0a
fcfe04fef6f8050403
05ff05f8f9f4fcfdfa
0404070203040100ff
fe00fe02fefdfd0105
030103fcf7fafaebf0
0402010304fdfdfe02
030008020b02060302
fe0d06f7effafae7f9
01fc0202fe0500fe06
02fe08faedf8fdf7f9
06fdf206fefefff802
fff6fc0afcff020003
000d07ff0e05fb0408
fcfafd020205040702
fff2fbfcf6fdfff7fd
fbeffdeadce8f6e0ee
02fd05020bfdff0403
fe0206060306fdfc00
01020202040105fd06
01ff04010302ffffff
fdff08f9fafdfcfafd
fffef7f8faf8f7f6f3
02170d010a0cf3d8e9
faf3fd070506000d01
020502f9fe01f4fa01
030705040803fdf7fa
fe0202000301f9f8fc
0a00f102faf3edf705
fb040400fefd0602ff
010005fc0b030c0702
f7f7f909170f0108ff
0602070102fcfff900
01fffffd0102fffb01
fefe00fdfcfafefbf9
fbfb00030904fd01fb
ff071204fdf901f9fb
04fefefdfbffff00ff
0201ff00fcfefefd00
fffc0003fc0909fcfb
00fc0303f50ef30e08
06030605ea00070600
fb00fef90000fb03fe
fe01ff0203ff0400fb
fc0401fd03fa00f2f6
f90701ef0bfa20fff7
0d030511ee00fef201
0201000afff60802f3
01fefb03fff80101fa
02fffe020100fcff00
0102000101ff010001
fb0109f8fa14f40021
00fe04030001030103
01ff02020005ffff02
0300fe04fbfe01fdfe
0a1010f90007ebf3f8
02ff0000ff0200ff03
03ffff0106fe00fcff
fffdff000200010103
07fcfd11080018170b
fe04ff0100ff02fe00
05fcff0201fe020101
00fe04fdfa0000fcfc
010f06fcff00fffbfd
fb05fbf5f7f204fc03
fe0100f6fd050502fe
020201020402000101
030703fdfc01f9f1fa
0402fb04fcfafdfbff
03020102030604fffd
0001fa020604000b03
03fd07fc0409040c07
fd0301fc0300fd02ff
fefefeff06f6fd08f8
fe010502080801fefe
f2f3f4081b070106fe
fbf4fb07fdfd060406
fbf6fdfffd0b020106
09090104f700fcf501
040106fe00fdfdfdff
06fdffffff0202fe00
f70105fefdfbfe02fb
f8f6f9eeeeeef9f4f3
00fbfdfcfdfdff0107
03fbfcfef5fa01f9fe
fa0802f8fcf9fdfefb
fefdf8fe04ff020806
0505060401fffff3f4
fd00fe0000fb040000
fcfe02ff0102fbf8fa
f8ff09fe00fc03faf5
fbfd01fefe00fcfaf9
0600f901f7f101ff01
fffb05050605050703
f7e8ff061507031a07
05010203fbfe01ff03
01040a0001fafdfbfa
fe0305fffdfe02fffe
fcfefefcf7fc040202
05fdfaf9fe03020204
02f7f3fffd02060404
03060000f9f9fefc01
160c01f4e9f2f4f0fd
09f40202ee0deb050e
fe010104060402fef9
fb06fd0b09ed05f3f2
f80b080207fffdf8ff
02f10a03ec14eb020e
00fb06f5fef0eaf800
0005fd0300f304fef6
06f2fafae8faf6030e
fdfeeffcf5f0eaf10e
f6ebf2f0e4e8e4dfe3
00fffcfefe01010002
05060104081002040d
0103020301fd03ff00
0302fd03fefa01fbfd
fe0000ff01050203fc
0102fcff00f6f9fe01
fbfd02f1e1f50403fc
08f9e8021b04e9fa1a
feff000103ff0101fe
fafa0000f6fe00fffa
fefffefefe000200fe
fdfffcfbfbf902fefa
0205fd0600feff0504
fbfffdf9f8fffffafb
01fefefdfdfc00ffff
fffffb04fa0303ff07
02fefdfef5fefffc05
06fffa03fd03fd0003
0103fefc00fe01f9fd
f700020309f806fff5
fef9fbfefb0003010d
fefc020000fe0108fe
030706000f07fb0b01
fcfdfd00f60206f805
010afe02fcfa010209
06fd010bfb05060205
03dff008ecfa0c0304
fff3fffaec03f8fc02
010108050107030103
fdeaf3fd04feff1305
01f6fb01fb00fafc00
010704fa01020301fd
06fafafaf1fef9f805
fbfafcfcfafdfbfe00
01fdfbfaf2f900fd05
07fd04fff80202fe0b
02f4fdfff3f900f5ff
f5f4f9fcfefffdf901
