fbf2fe04f8fafef9fb
f707fbf90afafa0bfe
03fcfb01fe03fe0105
02f800fdfbff00fdff
f2f90de60118e7001c
fa01fefc0401f707fe
fffffe01faf802f8fb
fd0300fbfffaf3ff00
fffcff01020a03ff01
020b03050805020a00
020602070b06050a02
00f9fffcf1fe01fa00
00fe0200010004fd00
fdfd02fbf8f7f7f8fa
00fcfefff9fcfffefd
f7f900fdfefffbf5fd
01fcfb00f2fb04f903
fe0700010902000402
ff00fe030502fd01fc
fffe0300f8ff02ff01
fafc0505fc0400fdfb
ff0003f2f301fbf3f8
0303fcfdfafafffe05
08f701f9ebff01f906
070207fd0405030101
0203030006fe020c02
000000010602030604
f3fff20418040308fe
fef9fdfcf6f4f8f700
f404f50214fefa14fb
090605040805060908
fdfefe050401fbf5ff
f7fffb06f6fa0903fd
00fe08fe0007000002
000603fcfe0000fcff
03fdfb0803f8fb07fc
040908f902fd050002
fdebf60ff7ed0a07ff
fd0000fdf9ff020703
faf2f906ecff080702
0004fefff51203f3f7
fb05fbfc09fafe0902
fef9ff0e0107fefef9
fa0100000c08f90405
00f50206f6f40905fc
ee1217ffec0b0afcfb
010ffdf90605ff08fe
08eef101f319f8050a
04f8ef0efdf301fefd
f902fffdfd00fb0afd
f909030b390bf901ef
fffef10914fd06fcf6
120bf52112ec09ebe3
f900fafd0004010003
0803fa02fef7fcfd04
06fff20bf3f7f9fb08
f7f0f8e1e4efeee8f0
020304030402070405
f1f0f4e9e5ebf0eeef
fdfefffdfdfdfdfefa
08030704fef90b0501
0104fb0100ff02fbfc
000304ff00fcfefd00
fcfefefd03ff0400fc
f90101f70004f904fe
02ff0206f70406f204
0bfce81c00e21d07e2
00fa0401fb0109f703
0008fdfa03f6fd08fa
fc03fc0100fe0304fe
01fa04fefd0307fd04
02ffff03fbfe01fb00
fff8fbfbf7f9fff701
fefd0108050905fd01
01000300030102ff03
00fe010000040501fc
01faff03f8fe06fb01
020400050703fe05ff
01fe0201000002fbfe
f5e7f7e8dce9f0dfec
fdfefe0602fdfd00fa
f7fdfa020305ff00fb
fdfbfbfcfe03fcfbfa
01fe0504f6fe02fefe
0507040f100b040702
fbfdfa0100fe000000
03fc0b05f90004fefe
f90101070b0cff06ff
faf6f70c08000d0a02
fdeefd05000008fe00
f6fffef3fafdff06f9
040b06fcf602070005
0011000112fffa10fc
fcf7f9fcf8fbff01fd
06fa02fdeef2ff0506
f2f9f7f806fcf90100
fdff00fd0200fefe04
fc1d14ea0513f4e9f8
fefe0702fbfe0406fe
0603fafa08fffcfc06
0b0302fff8f70c0501
fffbfaf9fdfdfffefe
ff05fafd0204fcfc01
fc0f0bf5060bf2f6f9
fefd02040ff9040af7
02f9fc070900f9f5f8
04f8f4fbe907fbfa08
f8f90908fdfd08fff7
0607030d0c040205fd
04210f0d3813031004
fcf50a0904f600fdf7
0201fafbfb00f9fb02
f806ea0b18eef800f7
04ff0c05f305090d06
e80518e20736e6e505
02ff090503f90801f5
0405040102fdfefdff
02fdfdfbf1f700fefe
0bf4f706fcf60a02f7
01fb00f8f4f308fe06
030203030501070205
0302f7151110fcf9fd
030607000201040907
02ff0501fafdfff9fd
f8fefb070b0afc02ff
fb03fd0304fffe00fd
faf800f5f4f903fd01
05fefe07000305ffff
ff0503070704f80203
fc09fff90cfdf80cfe
f8ee04f0eefbf9f2fb
0100030c02fefefc0a
fdfa04f5fc03f7fa04
01f1f9f9e8f607ecf8
ff0103050b08060e04
0602000106fc020001
0105fdff09fdff07ff
ff01fdf1fef2f800fc
ffff00fcfdfffefeff
02fcff01f8f8fcfbfd
fffa0002fc0105fd01
fbf400f9f7fd03ffff
030aff080e05060b06
010301fc02fbff0801
fc00fbeceeedf9f9f6
f90af40317fffd07fc
fcf504fbeff601fefc
0000fefbfcfefb0202
03fd0200f00206fc00
fcf40302effe010002
05fd0103f8fb090401
020afffc04fc0008fd
ff02fcfa00f5feff07
f804eff804f0f803fd
00fcff02fe01ffff08
08fdfefdeef8fff609
06fafe02f9fa00f800
10ef0c01e1f90ef003
020404fce8f9fced03
fffb05f3f5f908180b
fcf8ff05fafe0901ff
f40508fe0001fef8fa
01fbfafcfefb00fd03
00fd05f7fa00fefefb
090801040c09f30201
ff0afeea0804e6f701
01f8f5ff00fdf30002
fdfb02fffbfe030301
fa0405f8ef0a04fe03
f3f3f7ebf3f0050b09
fff80aff040900050c
fa01fffefdfb0301fc
03f30104effc01faf9
faf8f3f8ffecfbfbed
03fd0202fbfdfe02ff
0003fef606fcff1107
000401fe09fafb07fa
fd01fbf904f6fe02ff
f6f507f7f600fbfb03
02fa0002fdfc01fe04
03fb060cf603130200
eef9feec05fef703fe
060605040309040500
fbfefdfb0403ff0708
040006030702070607
02ff040bff120a070a
fcfd03eef0f3fcf4f5
020103020405030203
fffc07eeeff2f7f3f6
01fc02f0f0edfefaf9
00fbfbf3f6f302fef7
07080509070d070609
fc05fcf50dfff60dfa
fcfdfc050501090507
fe02ff020402fc07fd
05fe01fff8fe00fc02
fffffe000002020401
fdfff705fe0002fcfa
fcfdfffafffcfafd03
00fd0100fe03060107
f702fa040204f701f9
0007fffe05fb0011ff
0102fefbfdfcfa07f7
0000010100ffff0102
00ff00ff03ff030502
fffbfe02feff01f800
ff0202fffc02fd0102
04ff06fdf500fffb00
080204f7e0e808f401
f9fbf8010705fd0900
0203fff8fcedf0fcfb
010000fe0205fcfe02
020002fdfbf9070304
f800fb071109f9fffa
fc0306fafb0303fcff
05fb07f9eefb04fd05
f500f7f6f7f7eff7f1
fd06fafb00f5020bfe
fffef4f8fefafd05f6
07000502f5f3070004
ff0cf0001101fe0afe
f10df7071c08f2f2ee
030908060802050605
0bf806f9e3fc0afc0e
fff2fa12f4f6080c0c
fb1013e20b19eeeefe
00f5f905ebf30e08fc
f9fe03fbf40501f9fc
fef60607fafd000200
ff02fbfcfc0302fbf9
02fe020307fffffe06
f8f5fdfffbf8f6fbf8
fdf9fd03f8fc01f9f9
fb13f9f50fedff0dfe
041ffa0407f5f90706
0404fcf8fc07fefd09
fd00ffff0b05fb00fb
03ebf700e7ee04fafe
fd0504ff0700fc0c00
07ec0204e5f8070405
fe0703f71406f608fd
080b05f9fff7f80f05
050903000600fd0206
07fefd02fbfaf7f809
f9fffbf3f4f9010203
030107faf2fdfe0002
f7fd09f6fa0105fcf7
12ff0604f2fb0a0707
00fe01fd01fffffefe
fb00f5020405fd00fd
040804fafefdf9f905
0600fffdfafd020208
040401010300040507
fcfefb080606010301
060304ff03ff0502fe
fefb06f5f4f500fe02
0100fefef9fb000200
0902f41300f21efce9
02000102020304fffd
050600f801faf5fff9
030103fcfd01030300
030001faf9fa04faf7
ef0407ed0210e9fd19
0301020203000d03fe
faf1f6f6eff9ede2f3
02feff01fdff020101
fe0102ff0604fd0800
fbf5fef8f2f8fbf0f0
faf3fbf5e9f2fbf0f7
03f7f502fbfffaf602
02ff00fefefe000201
fbf6fbf7f0f6fffaf6
00fb02fbf0f5fcf8fe
fd0606000301000200
010103fbf8f80202fa
01fd03feecf803fcf7
fefbfe00f3fcfffffd
fcf805fff0ff00f1fe
0207fafa04fef8fefd
fdfaff0403fcfe01ff
f7effc02f200060005
fbfd02fbf803fef005
fbff04f3f3fdfef700
0205fefcf8f3f0f700
f9fffefcfdfc000203
00fcfc0a0401f6f7fe
ff03f804fcfb05f602
0a0501fdf5f908f5f6
fff0ee0cf8f0090afc
00020001fbfe0000ff
06fcfdff0702fdff00
01eff60cf4f2060801
07fef40b02f50103fe
03f8f80700f70408fe
faff0504fcfe0405ff
020800fe0101fcfafe
06f606f8f6fa050500
fefb0905f10104fbfc
0103f7fcfcf9fe0800
020101f8f1f7f8fd06
02fb04fffb02fcf903
fced0609f81205fafc
0508fb03f2fbfbfd03
fef4fe04fdf0fcfff7
fefefafef3f6fef2fa
f0f00bdb041cfe06fd
00fc06f9fb030704fd
01060304080afe0106
02fb0600f40503fe04
fbf9fcfbf6fa06f9f1
0a01e91313d7f108f5
fbf7f5fffbf1fff7f6
fef9fffffc00fcf8fb
040608040509000507
0206020101fe04fd01
0901000e0506070507
02fbfe0304000400fc
fcfb01fcfefcfff8fa
0906070a0706070c0c
f6f6faf1f0edf9f2f4
ff00f9ff01f900fffe
fdff01fdfb0400fd07
02fb02fbfc0403fc07
fe06fcfd0bfffb0ffd
00f0f9f9f9fff7f402
fff9fcfcfbfbfff900
02020603fc02fe0005
0201fefefafd00fafd
000405060606030501
fafd03f0f1f6fdfa00
01ff01ff00ff030400
050003fefbfdfa04fd
03fe040b0303000308
00fb0202ff02fefd04
fe0308030003fceaf7
05000206030503030a
01ff01040002fdf9fe
fcfd01f4f200faf7fc
ff00000602ff07fffb
050205faf7fc000200
01f801fcf0fd02f5fc
03fafe01f50501fa03
03faff00f1fb03f702
01feffff0305000408
fd020108080c060503
f6f601e8e6fdfcf803
05fd0afaeafe08ff09
00f801f0f7f4001006
04000c08070304ff04
07030b00f20103000b
02f70008ff0a01f001
00fbff050603050607
ff0606ff0403fefefe
fc021cedfa0ae9f2fd
fd04fffa070000fefc
03fafb0bfbf8ff02f9
0902fcfc05fc030c09
00fcfe00faf90503f9
0907f60503f8040b01
fdfcfcf90004fcfd02
060505090714fff2ff
070af002fff4fffbf2
00fe070300f70602fb
030404fdf4f801fc01
06fe070f0401f5f0fb
0800f401fe05fcf403
0ae8040cee0604f606
fdfbf8fe0909fdfd01
fcfe0107fe06f8fefd
fa01fbf804f7fbf9f9
02fa010901fa0703f8
fcfbfbf4f2f7060107
feecfcfbeb03fbf5fe
0a0309f9fe0cf8fa11
030c0efd08fbfd06fc
05ff03fdecfa01f602
f1eef1e0e6dfeaebeb
050406faf7fb00fd00
feff0402ff0403ffff
020204fcfbfd07f90a
f5f000eeece2f4f1ed
f3f2fcedeff0fcfdfb
fe00fcff02fe020000
fffc00f0f3f4f9feff
fc0200fd0afcfa06fb
0001fdfe00fbfc0000
0304fff901fc0405f8
020303080604060805
fd02fcff04fcff05fc
03f301f7f202fef707
fefc07fff903fefc05
fbfcfcf5f9fefdf8fd
020406fc01fd020803
0202ffff01fe010203
faf702f7fafa03f6f9
010404ff0201030203
fffe01fffcfe060103
04f901fffd0102fe09
02fd0603040a0afc02
0106000a0e08020a05
ff0e01000603010301
fd05fdf9f9f8ff0805
faf802fee5e9ff02fb
fc0001fcfe01fafcfb
fb03fb0102fffd03fe
06ff0304f70603fe0b
05f9fe02fafc01f801
fdfb0000fe0101ff04
00000200050bfafb08
fbfefaf8f8fafaf6fd
fbf4fbf8f9fc0df8f4
00fdfb06fbfd0202ff
fdf20af8f003010404
0cfc0800f30102f2ff
fffdfe04090b0afd01
fbfbf7f6f2f6f7f2fa
06030c0906030604fe
0cfb01040805f6030a
07f7f31006f3061106
fbf900fcfffdfb0005
04fefe050304020107
fefffefcf40100fdfc
14fff9000bfef70104
02f8f909fcff0901ff
fc0001fb0004fc060a
fafefbf6f4f2fcfc00
fded001513e6fb10f8
fd0405fe0205fbfafa
fcfcfcfefffefefa00
00fefe000207fef3fc
0b0bfc090f05f9f9fb
ff0005f8f903fbfcfa
fb0503f1fe03fd1006
0008fff016f5f50dfc
ff02fe0100fe0a01fd
fc0209f8131bfc090c
fc04fc01050200fdff
0bfef40ef2ea08f9f5
f9f201f1ecf9fef7fc
f30ef4ef14f5f0fcf5
fd0208fe0105fe0707
08020f0a05070e0808
fefd02f9f6fcf601ff
000402fe02fffe04fe
fffffc030703060905
fcf5feebe8eef9f6f6
fdfd06f6efefff0002
0505fd0c08fa070803
0001fc0106ff030103
00fa0405f5fd05f401
03f5fcf1eaf8f4f805
06fa0003fdfc01fb02
ff0602fe05ffff08ff
ff0607f90500fd0502
00fe03fff8fe03f704
02f9fafff3f903fb00
000100fb03fdfe0702
02fc0004ff0300fb03
faeef6eee5f4eff0fc
01fb0003ff03fefb04
fffbfaeff1eef3f6f5
01fc01f6f3fcf0f2fe
fcf5fcfaf6fb01fcfe
fffe01000000000b05
fe0800fe0501ff0c07
ffff0202f70103fe07
01f7f8fbf707f8fd00
07fd0303f30703fd06
00fb02fbeffafff702
0501f900ec00faf9fe
02ffff02000702ff00
fafe00fb0400fe0f01
06fbfff8d0ec01ecff
0bfc0b04f60202f602
fd0000fffe0009fc0d
05f90df3e6fd06f7fe
fb1008f513fef71203
fb04fcfcfcfcfffbf6
01fa0900fb05fdf606
fff903efd9ed0bfe0d
04fdfff80408fffa05
0501fb000602f7fd03
ff0302fbfdfefc00fd
fffefa01fffc0102ff
03f6fc0ffdf60d0d04
fffcf704f4f30c0a00
000402010202fafbf8
00fc03fffb02f8f6fe
0008fdf102fafd0b0a
06f8fe07010501f700
13fef9f90d0bfcfdff
06fdf9fe0209fff503
090d0200eeeb090909
f8fcf6f8f4fc04fffb
fef9f5fff205fdf4ff
fdfaf401f6f501f800
f9fbfafa03fcfa01fe
0a0003fcec05fef801
05f4f6fef101fff902
04f80403f108fbf90b
01fefc05080dfe0003
f302040002061209fc
f6f5f2f103fdedf200
06fa03ff0003010205
0403030b0407080702
02fe07eee8f401f8f6
f5f3f6eff0ebf9f6f5
ededf9e8e4e7faf7fb
fd020800fd05fc0404
04050404030cff030b
fbf4f8eef2eef5f9f3
00fd0506ff030b040f
