f7f4f1f0e9ecefe4ef
fefefffbfcfefdfbfe
fdfcfdfefefefdfdfd
fefb00fefdfefcfdfb
0004070705030906fc
fb050200060206faff
030500ff0101ff0204
fefcfefbfc01f1f900
fbfdfcffff0af2f007
f6fdfafdff08fdf804
02fdfb0403fdfff8f9
02fe0304f401fbf3fa
f904fafc1205f10503
fd010c05f301060bfd
05f6fc0a0c0508fbfc
060d01f9040a07fffb
ff09070500fcff0500
fcf8fbfff6f9fef7fe
ff0402fe0503ff0101
01fe0303fc0102ff00
fffbfefdfe00fafcff
06f5fc00f80202ff04
ffffff02fd0304fc04
fc0d04fd0afe090cf5
04010003040404ff00
f8f8f7f6f6f7f8faf8
f7f5faf8f5f9f8f3f8
fcfffefaf8fafbf8fc
fdfe00fffcfffffefd
000301fe00010304fe
ff02000103fefd00fd
04fc02010303fc0504
f9f9fffaf704fefcfe
090a07080605060705
080b0207060a0a0a04
0609fe0b1104fcfff6
080405ff0e02010203
fbfe0101f80300fcfd
020200fe02fb010802
02f8fbfbeffb05ff00
fafc01fafcfff9f3f8
faf5f9fbfef902fd02
0503040001fe01ff00
0306080c0902fefdfd
04f8f20505f7fc05fa
f3f7fb070c00060a04
0002fdfd03070602fb
0604080b030d01050b
fdf9000603fef9f4fb
f6fef7fe0502fd02fd
050808010905f9fcfa
fd0503f8fcf80101fc
fa030efb0305f9ffff
fdf90604eff6110d01
fb00ff0c1a040605fa
030906faf5f2f70108
fd0502fef4f4fdf7f3
fbfffffcff03ff0100
0303010302fefcf5fc
0202020406fcf8fefb
02fdfbfd00ff0104f9
0307080f18fef7e7e7
f7f5f7f00419181706
fdfef6f7f0ff051112
fc03030002020800ff
03fefef7f5f7fffd01
0403fc060303000406
f2010300f5f60bfaef
0a0403060503060304
fffe010003fc020001
fd02010400f809fdfa
02fd000202ff030302
f9eef203f8ea0802f6
f902f50b12fbfbf8f4
fafd01fa000905f9fd
01f6f40501f6040901
0f0407fffafd0d070e
ff02f7fc0000fe0200
0204fa020102fcfa03
01f10e00fe0cfc02f7
fef90302fe05fffc05
f312fff916fef50bfa
02fd02000300fe00fb
040402000002fa0106
000405020104faf9fc
050705050d07070607
01000100fe01fd0203
03f0f806f9fb05f3f4
fbfafcfdfbfafffbfb
0007010f0f0f030bff
fffdfbfbfb00fbfc00
00010104fd010402fe
fe03ff0001fffe01fd
020303050104020404
fefe00fffdfeffffff
fb02feff01fffefcff
0d0c09091103050704
f4fbf7f5f5f8fef700
090b0b080907ff0201
ff03fdf802fb02fa07
0500080b040c0d070d
00fe00fd08fbfe0600
0603ff0203fffa05f9
040102000901fb02fd
0101fd080000fefe01
070405fefaf9fdfa00
f2fafdf8fe01f9fffe
08f8f91404f00707fd
0f040703f8faf8eaec
fe0405ff00fafafbf6
0bfcf61306f00005fa
010004000405fe0404
010800010b010304fb
000703fffd02020009
060c01fb0cfefc03f8
060105f8ff0104ffff
03010702050007080a
fffffd02000700ff00
03ff01f7f90204fefe
0bf905f5e8f1fd00fb
fcfeff020502fb01fc
0704ff0100fe03f7f4
03fcf6fbfe07020a05
0708030401fdf7f2f1
fe0406f9fdfe030203
fefdfdfefcf8fefcfe
080a0502fbf8fcf5f2
01fefcf9fe05f80a01
f3fdf4ecf3eff3fcf4
fffcff03fd01020302
fbfdfbfffbfb03fdf9
010203ff0604070908
fc0301ffff000502fb
fcfefffefdfd00ff02
04ff00030001040402
030000ff0200020405
0600ee1016fbf901fc
fcf20c00f90505040e
080e06001908fa0615
fcfb06f6f9fcf70000
00fcfc06fa0500eef1
fbfef4161e1f06ed02
ff0403fbfa00f9f8ff
f8fcf8110f0500f803
fa0200fdfbfa04fafa
07e4ff08e8060ceb0a
00fa0102f8fefc0005
01020302000202fe00
fe0100fdf6fefbf7fb
01f803ffee02fdf605
ff04fb01fffb0001ff
06fe0607f90303f800
000100fe02ffff0500
fdfefcfcfffafe02fd
01040300020201ff00
ffff00020303020403
fe0203030504030102
0201ff04fd000101ff
060005fefdfc020504
00fbfffdfeff0001ff
fffef8fc06f5fe00f7
f9fe02ff0000fd02ff
fc020605070a050504
f8f7f8fafff5fa00fb
fdf3fc07fafb0707fe
fff8f8fafcf7f0edf1
fdfbfd0a0609060706
030901030701ff04fe
f70407080c0b0c0a0a
fcf501030202080d0b
07f8fb0407f9f804f7
fdfe02f3030a040b02
fdfdf60901f006fff1
f1ededfbfceffc03fb
fcf7fb05fd05040800
f7f001000c0b07170d
fc1101041b02fb03fa
fde9ff02f1fc0202ff
0103020609010505f8
0801fdfcf4f9fefe03
04fc00f9fb03f7f6f7
f9ed00f8e605fefe07
01f9fe090f09fe02fc
0002030a1204fe00ff
01fcfdf400070e05fe
faff010301fcf90602
010a040607030103fe
fefef8ff0c0e170f05
0005ff090a02fbfcf9
fbf9ffeffe09fdf7ec
fb04050608fc03fdfc
faf9fff80405090df9
f3f2f2ecebe9f6f1f6
fdfffc050001070707
ff01f7f701fef7030a
0103fdff02fef8fc0a
040202070201080301
fef8fefef8fdfffffa
fa0300fffe010400fb
04040502ff0101fb02
fefefbf6f8fdf9ef05
00fbfaf9f5fa090dff
06fe05fbf806010801
fd00f9fdff0500fc05
0300fbfe04f00d12f7
050c11fcf610edf0f1
fa0a0109110001040c
f6f2eb0708f4fa0700
04060d01f60103f602
08f80103f400060001
02f504fef700fc00fd
00030300fefd0003fc
fff901fff8fe01fe03
fcfcfdfdfefefefc01
01fb0105fd0405ff05
02020701fe04feff01
00ff0000fc00fd05ff
ff07ff070d04060c03
0503ff01fffcfc0702
01ffff0201fdfffe01
fcfafefd00ffff0100
00fe00050603fd02fc
fe01feff03ffff00fb
02030202ff02050306
faf6fd00fe0407030b
f5f8f4fbfcfd010102
0501fd00fc01030605
fe0101feff03030001
fbfe010004fdfa01fa
f7f8fdfffa00f6f8fb
010306000602fe0400
fcf7fbf8fcf8f6f8f8
071107010105050202
f1f9fdfbfa03050d13
f0fafbef040e03080d
fcf702f3fb0af80107
fb03fff90501000401
0f0707000a00060300
f9fafd0900fb000a03
f4f8f60103fd030b01
060304f903f6feff00
03fcff03fafd060503
fffbfcfffafe060a0c
02fdf8060601000300
ff13fdf80ef7fe0000
fffc03f3eaf7f907fb
fffc0107130ff90804
090802101d11f0eaee
07090b0401f4faeafb
0200fafafb03000d08
f9f4f3f2e2f9081721
fcfcfbf4ff08070b09
00fcfdfafd02fc0508
040409090afcf8eff4
0605080108fbf7f4f7
fdf900f8ff0bfefffa
08020305feff01fcfc
fdff05fffc010404fc
fafdfffafff90505fd
fbfdfffbfbf7f8f4f9
010703060606080405
f9fcfcfaf8f8feeff0
06fefd02fe01fc0206
040404050405030606
ff05fcff0005f7f2ff
fef7f903f5fdfdfe07
f802fff0f200fdecf3
fcf70802ebf1f9f0fb
000307fc010af9fb09
04fb020efe050300ec
05fe03f6f001020201
f5f4f6f7f3f3fbeff4
fcfbfc03fb01000005
0304fefffffffdf9fe
03030501f403f8fbfe
05fafe04f60102f400
03f6f903f8fafffafe
020dfdfb0dfdf60e04
fefe06010201ffff00
fffb0001f802fefa05
ff00fdff0400000000
feff00fcfcfdfefcff
fcff000000ff040300
020203010601fe03ff
040705060a05030703
ffff0406030405fe00
0401fffffe01feff02
fffcfffffdfc0102ff
0205fffe0101000805
0406ff090301010c02
fa01fafb01fcfc04ff
f6f9fef2edfb02f8fc
f2f5f8f8f0f7fef9fa
f5f6fdf9f0f6f6f7fa
fbfd03f90302fe01fd
fc01fefffefef801fd
0a0408040c0b020afc
0704f9070afaf8fe01
fefaf90dfff8080d02
fd0603fafcfff8fc0a
0700000b0903010810
1204ff08fffb0805f4
f5fd0df00309030101
0d00fb0c05f8fe01fe
020204fce7f8feff02
09f6fc04f4fb030303
020205faf8fc050800
fef902fbf7f8ff03fe
020004faf900fe0302
080e01f6f2fb03f0f6
fdf604fdf6fc010200
040107faf0fcfdf6f5
f7f704fa06fa070203
fcfbfefcfdff0100f8
0a04fe05f6f0faeef4
fafa000300f4fe0301
0406050406fefd0502
000b071413f7f9d2ed
fcfbf9f4f808040e0b
00fffd020207030a07
fcfdfbfefefaf8fbfe
faf6f3fafafcf9f7fb
fc000303fc020b01fd
fe0100fcfc01020206
f3f2f2eeeeefefeef3
0401f7f9fa01f3fd03
000004fbfc01fcf8fe
050800060905040605
0305020a0a0b01fcfc
f4f7e8f5f2e4151bfd
00fbfd060e07f7fe01
fe0403fae90bf4f104
faf8fc03ed0102f1fb
fa00fef90005fb0304
080efef711f7f007fb
eff4fcf0eafafef403
000b09040503000705
fcfbfff9f70100ff03
00010000ff02fbfe02
01f60002e8fe02f1fe
030afbfe00ff0006fa
03feff0300fe0305fb
f60f09f90602ff04ff
0203000003fc0100ff
fbf9fbfafafcfbf6fb
0002fefcfbff000300
fd00fd01fbfe0401fe
030504020204020902
000105040202000305
fffefffffe01ff0103
00fb03fdfe02fffe02
020101010201040002
0c09070a0f07070808
0305fdfd04f8eff3ed
0304010105fe03f901
f9f6fdf7eafcfff702
02fb0703f603fdf8ff
02fb040501060001fc
fffc0602ff07010906
f6f6fefef906020908
ff0b06fafbfcfaf1f8
fbfdfffbfcfa030504
0bfcf61802f70a0cfd
fff9ff090607090409
0afff804f6f4fcf8f5
01fbfff7f805fbfbfb
0001000e0506fffcf1
f40000ee050cf8f0f5
fe0d05fc0203f4eefc
f4f2fbfcfa01fbf600
01ff02fb030504fc01
fef4fdfef3f3f9fdf2
090302000b07fff901
0301020201f9fdf900
0109fdf3ddeefff8ff
000604090e09fdfffb
00fbfa00f6fff9ffff
fbf8fcf702060200fd
0102000202fefdfcfc
ff0303f7ff020203f9
fdff0903090602fbfd
fafdfbfafe08090300
0b11080efbeefdf407
fbf6faf8f705010503
030104030207010101
010400030400030507
fdfefefffffd0002fc
030203010603020303
ff0004ffff02020000
0205ff050a02fc0003
0004ff030301fbfd03
0505010201ffff02fe
f901fdfc14fd0e1909
fefff600020903000c
03f5f80c01f0030604
fbfdfd0207ff040d07
ff02fe030d00020504
00f9010701f906f1f4
04fbf60505f8ff0d01
09fe010b020400fe07
fd0101ff02fffdfdfc
0305ff05fb0101fcff
00000600fb03fdf50c
fe00fdfefe000301ff
00fd0200fcfffdf9fe
fef7fdfdf6f8ff01fc
ff0605020803ff0c04
0103fe03010403fe00
ff02fe030302010300
040603010503020101
000002feffff0104fc
010302030002020404
0000fffdf9fefefcfe
02fefdfdfe01020000
020202fd0308040103
f4f3f6f4f4f7f6f7f9
faf7fffefc00010506
f8ecfc00fafcfd0800
00fb010201fb040d07
f5f4faf6f4f7f8f6f7
00fafa0103fc02fbfd
fefc0300010802fe01
00f5fc04faf5ffffff
0c0707030c02000102
fcfdfc000205050901
f7f6f601fefe08100b
0d03fe0f10080d0f0c
f8f7f8f6f6f5f9f6f7
07060605fbfefef9fb
f8fafbf3f703f2fb02
010604fdfcf6f9edf6
fffe02000000fb02fe
050509020700fff6f9
fcfbf80202fdf6f4f9
040001f1fc03010305
fffffcfffdfc00fd00
010202fdfffcfcf9fa
01fc0305060100fc01
ff0a0901fbff01f9ff
030300f901f8f9fd01
fffcfffefe02ff0806
fafefcfcf800fa0808
04040708fefdeff2fb
01fefcfffcff010304
fefd0004fefd0205fb
fffefffdfafffefdf8
fefdfef9f503fffcfc
02030705fefafaf2fa
ff080005ff07040707
0402fdfefc03fbfc05
050406060406010706
0104ff020003fafc06
03020007090502fe08
fafbfbf7fafaf4f1f8
ff0304020400ff0201
0303060402030b0d0e
fbf903020606fff801
0003000502faf5faf9
080d07100c0303eeff
010505fefc05f9f305
04fb04f0ed05030115
0003feeaf701f6f1fc
f6fcfdf6f1fdf8f5ff
fffa0af1e610eee503
05fbff05fafd04f9fc
fe0201ff0500fb03fe
ff00fc08fdff0b02f7
00fe0001fcfcfe04fc
06f3f905f0fb07f800
01f904fefd05fffe01
fffdfefefefdfd08fb
01f6fc03f8fe01fd03
fefcfbfcf9fcfeffff
ff010300fcfefefc01
080401010004fd0204
01fdfbfefcfcfcff00
020101fefdfdfc0000
04fffe000100fd0001
fefcfdfefc02fffe00
00ff00020000040402
060900000802010004
04ff0004fe02fd0302
030603000900f9fcf9
010802fd0506040007
0508080708080a0e0a
00fafafbf4f9faf902
00fa01fdfbfef7fd00
f7fbfafdfdfefc04fd
f9f3ff020908ff0f08
fff1fa03fa03fb03ff
faf805f4fd08fdfcf4
03fb01f8f903f5fbf9
00f9f401030407130f
020703ff02010a0703
fc0002f70104f5fdfc
f8f9faf90801fd1007
fefbfb050c05fdfefd
000406fdfcfb02fb06
000003fef6f7fc0304
fefe0404faf9fcf803
ffedf5f5e9f5060308
03f7fcf8f500060b03
01f90002f3f9faf4fd
fdeef8ff0802050905
00fcfdf80104010b03
fdfdfbfcfe01060505
00effbf4fe060c04fb
fefbfffb010a0c04ff
faf6fdf90709061503
0906080bf3e9ece9f3
030702fef2faf4fdfd
fdfe01f5f9fdfc00f6
