07f80df8ed0200f702
05f9f304fbed02faf5
000304fbfe06020406
f60407f4030bfd0406
03040501fffdfcfcfc
030dfa081c16f5fc13
f4f006f3f603ff0607
01f4f803e9f10603fc
01fdf9ff03fdfe00ff
000306060007040904
fe0302020206fd0207
fe0600030e14f1fd00
040f070c1a08081510
02f305f4c3eefef6fc
0a0705ff06fefe0107
010eff0f2c1df70e0f
fdf9fcf8f2fdfcf204
020603060205010203
fd03ff0002fd040704
fe00f9040400fe00fb
010602fcfe070202fd
05fefe08fefd040300
fef9fdfaf8fafdf8fc
feff05f8fc0100fcff
01010205fe00010005
0305000002fdff0101
fefdfdfff9fc01feff
03fffb090a07030904
0100fdfd0000fdfdfc
fd02020205040404fc
01fbfafff9f9fafa01
01fe0000fefcfafc00
ff02fa09f801fdfc08
060604fcfefafd03f5
0008fc00fe00fffefe
f9fe0102fd0700ff05
0c090efc0304fef4ed
fa0a02f31a0cfe07ff
0e09fd04f704faf101
f9e5f708f2f004040d
000102ffff0202ff05
000100020402030603
fdfd03fffd03fffa01
00fafe01f2f603f6fd
fbfffe050505060b05
fdff00fe04070401ff
020706040703010501
ff0203050404040303
f4f90202fd03010007
f9edf3faf2eff9f7f1
020e06050706010a0b
fc030c04fd0305fefb
080b140d0d0e0b1517
0d0bff05fd00030503
f1eef2f6f0f1f9f0ef
fcfe08fd030afffe07
02f902fe05060506fc
0003ff070707fcfdfb
060c05fb0801f5f3f5
30402912feeceeaebd
050504fe0108fffe07
fbfcfdfdf4fd03060c
ffff01ff0505fcfbfd
fbf602f5fefd090b07
f6ff07f5fd0ff60507
e7000de4fd23f0f610
fc0704fd0409fbfc00
010203fffd03fefd00
0005010203040000f7
0101fc0004fe010300
fc0202fa02fffdfffb
ec040cf1fe0efd080e
0404050b0b0cfe09fc
01fbfc04fef8fefbf6
f8fffcf8f2f2fcf0f7
060c140b14140e0d09
010afb0a1707fd0d00
0000fdff06fcfc0002
050c10090c1109060b
fe0df7042b1aed0707
0204fc0205030a09ff
fc07ffff07fff703fa
040504020301020305
fe010001fbf80301fa
fe0700061106fa03fb
02040102010101fffe
00ff050403f8040102
fffdfd010403030301
070904050701fcfbfe
01010202ff0101fefe
fc0300020600fafffc
ff010003fffafdfffe
fb0307fa0608fc0509
010001ff0202fe01ff
ff04ff0004fd000702
ff000000f9ff00fc04
070a07fbf506fffcfc
e4e4eb0712fe1b290c
110602fcfefef6fffe
fe04fefb0308fafcfc
0106fa0b1003050dfe
f4f6f9fd06f60c1209
fdff04fffcfe05fafc
fff7fcfc0001fb03fa
fbfafb0400ff0202ff
fc0bfe0b240df912fd
f9fdfe00060cfe090d
fd0000000002fffffb
ff00fc040703040604
00fbfd0100000001fe
ff000400fc03020100
f5f8fbf9f9fbf7fffe
040a0409070c020807
fa0300fafc01f40805
f6f9fbfdfafa00f8fc
08110c0f0c0b0b150b
030b07fc0301040704
0305fcfd00010100fe
080f140c0e0a06120a
0607f9080903070d00
0102fd02fdfcfdf6fa
09110dfdfef3faf2fd
0605010401fffff8fa
00fb04f1fa03080902
fffb00f1f3f80a0c10
030500030602010203
fceef8f5000a040604
01ff0404fe0601f9fc
0a06f903fefb08fd08
0e03e4070bde0603ef
f6ec0df7defcfdfdfe
f4f905f5fc09ff0c0b
f7fb05fcf40107fcfa
03edf303f2f9fbf1f1
12fef61405f51108ee
0d02fc0607f8050403
0300f40405f80504ff
fbf9f40c0dfb070fff
f9f7070004fe0101fb
fffffbfaf1f3fefcfc
fdfd0502060709fdfc
ececf6f7e6e401f8f5
02f100f5dce108f2ed
fcfc05f7e7f902fc06
ff0000fc00fe03ff03
fcfafb0102000003ff
fe0207fbf8fcfef701
0001fdff0200fe0001
faf8f9f7e9f005e8f2
f9f7f9fcf2f8fdf7f8
faf6fafafafaf9f6f7
fe01fe05fa02fff800
ff04ffff0000000102
fe0100fe04fffe01fb
030405000104fffefe
020302050706000409
0202fcfc0000fbff02
f8f7f601fdff05fffe
fdfeff00020302ff03
fe00fdff030101fd01
fe0d01f6ff00f8fdfb
fdf90af20bedfa10e9
fd0a0af8fa19f8effe
fd0100fcf5fef7f401
fe0202fbfd0500eff9
f6fcfcf4e0f806edf3
0a1206fb0406fcfb04
0407fef6f3f8fcfcfd
020303fe03ffff0901
f3fef6000d05050901
050302040a020006ff
0201000100fdfc0302
000002070502050701
fcfafdf1e6ebfcf2f5
020202fe01fdfafcfd
030901000100fefefb
eee9f9f8e2e604f5e9
04fbff09fff60400f6
01020c060207090802
fefefe04fbf900fff8
000707080206090703
00ff0308fefa0d0f02
03fe03fbf9f6f8f3f2
f9ecfbfee1eb04f5ec
fafb05fe00ff03fe03
fd030604fbfffdf8f8
fdfdfffafeff010101
0100fe0004fe01faff
00f9fa01fe0604080c
0503fffff9faf4f3f7
f6f1f301fd02030800
050705010a06f4faf3
11f9f11603cf07f9ef
12fced1b0ce60e00ee
00f60109f6e40409f9
01f80102fdfc0304ff
0601ff030502010101
fbfdf8fafd01faf9ff
040500fe0701fdfc02
02040bf8f40bf7fe04
02ff06f1f1f707f5fd
f602f2fb1f09f40401
fc09fdf7150af9090c
01fbfefcecf900f503
fb00fbfb0400f80a04
0801f50814fc02fef9
0302fefffcf7050402
01010bfbf1fe090303
00fbff00f2f901f0f8
fafafa0102ff070d09
04000104fc05fd0302
ff00fe020101fc05ff
fffb01fdfafe01fdff
fdfcfcf901fbfa06fb
feff00fdfcfe00f8ff
fdf9fdfaf1fa00f702
010404fb01fafcfdf9
0002fd0202fdff02ff
01ff02010302fb0407
040000fffc000403fd
ff01fffdfafd060205
fefdfd00ffff0000ff
fbfdfef8f9fdfefbfa
f7eaf0ecd8eafaeef6
f5f7fc000b01010104
fafafdf707ec0929f7
0906fb1807f00504fa
06020002f9fe00f900
0506fdfeff01f8fefc
f2e3fe0009f80c12fd
fe1009f602fef8f1f7
0d140401f308f4e6ff
020001050804fffcfb
fd02ff04160d0a180e
0004fe0504fefafe02
030903070300fefe00
000201050605000602
fcfafe070e07000804
0305020001010103ff
04fe01fdf3f8fbf800
02fe01fdfcfa01fbfd
fb05f6fc08fefc0905
faeff4f8f1eff9f5ef
f6f401f9ebfa05fbf8
fffbf9010201ff0503
0405fbfe03fdf80609
fb0000fff5fa03fdf2
fafafe02fdff0a0307
fc0503f6fcf203050b
fe09fa0b220df2ece9
0001faf5f901000005
fd01fb030901070201
faf8f8f90501050b0b
040708fd01fdf5f4f7
0001fe010102fefcfa
f7f7fefffc05fefbff
f20809f0f709f9080a
020afafd0303fefbfe
0605030417ff020605
f6fcf3f7f8ee050afc
0508ff050702fa0400
fafffcf8f4fff8fbfd
000207fefe04fcfcfd
f1ef09f6e4fd020002
040200010f01050804
0105080c1f17fc150a
0104030202030b0805
07060400f9fa00080c
fafb08040cfe040c03
00f30701d9fb03f5f5
fcf201f9e0f801f5f5
050601051207040a0a
fef900fbf4f8fef4fb
000204030801000104
010601010005fe0103
fdf800f8e9f4f9eaf6
fbf8fcf9f7f7f6f5fe
fffc0100fffc01ff03
0100fd020606000901
fcfe04ff010200fd01
fdfcfffffefefcfcfb
fefffa04fffc00fffc
fe0403010400050300
fefdfefefcfdfafafa
01fe010205050502ff
feff02fffd0200fcff
fdfefbfe0305fc0102
020001030408ff0308
06020400fdfefaf0fe
fa04fefd080200fefe
fe01f9f8f7f8f7f402
f8f1fc0707f205fbf7
05010b08f6fcf8f3f3
eef6f7fa0007060001
0201010400ff00fdfc
080d0cfdf709fff1fc
ff0004000308020a06
060506000305ff0102
02030300010204fffd
ff0102000306ff01fe
fe0503040507040505
00fe02060709050401
040506070601020200
ffff03fffcfd00fefd
fff4f7fbf5f306f7f5
0a100a040a0c0c0c0d
fafa00fdf1f801f5f0
fcfffbfbf6fcfaf8f1
0103fd0705fe040400
050e0907030908060e
f5f4f9f3f0f7f6eeed
01fe03040505050304
faf5fafaf30207110c
000601010304fbfffe
fc03030005fb0200f9
fdf8fef5f5ff020406
fefe00ff0001030003
07f7fdf7edfbf6070a
fb0704ff02fbfdfafc
030201fe0007fd00ff
000106f6f90cfdfcfe
fffbfd0704f704f7fe
0204000309fffe0004
06fbfa09faeb07fdf4
03f4f9f4fd0c01f8ff
fafb0500fd0003ff03
f1fa25faf415fdff11
03040300fc080200ff
03100cfd0708fe0009
0010faf70b07f0f700
00fe0a07f9fd0b0d03
fefa05f8faf8fffefd
04060205020b00fa04
08faf8f8d1e4fbe1f4
00f1fa08fbed060d01
fbf8fafceef301fa02
030202020103020304
f8fefffdfe04060c09
fcfdfcff070004fc04
00fefff8f1f7f8f2f6
04fe0202fbf902feff
fcfafdfbf801fbfc08
020102f9fafcfef2f9
fbfbfafaf8f9fdf5fd
02ff0000fcfffdf9fc
010102f6f7faf5f3f6
ff020100fffffe0100
fef7fbfef60101fffd
020302040007070305
00fd06fbfe050304fb
00fe0103fe02070106
01feff03fefe02fbfb
fd04fb0d030603f804
fcfbf2111300fc03ff
fe0601f8fd0305ff01
00fafef7effcfd05f8
fafefb04ff0200f907
04030504fc00f8f9fe
02f50203010d01ee0b
040301fbf6fc010000
02040301fe05fdfe01
f6f6f7f2f0f3f6f7fc
ff0000fefcfc0304fd
070704ff03ff000100
0300ff01fcfffefffe
0200fe000000fefd00
0303fe04050402ff01
fefffdfcf7fbfcf900
f1f3fcfcf3fcfcf9ff
fdfc00fff70007fbff
0508070603fe080c06
faf70102f0f702f8f4
fafa0202fe0501fe01
eceef8f4e9f6fcf5f6
fa010601fd05fffc0b
f7f9f9fcf3f600fcf2
010209fc040000faf7
f5fa03f6fe00f3f7f5
f5f4fcf90108050504
f8f9fe01fdfffdfeff
02ff020003030601ff
fef9fc0400fe020002
fce9edf9f4fe0c1514
01fc0004fc00fe0301
03fbff030402fd0104
ff0006ff0600fd06ff
05fef1fa05f1fbfbf3
020204010203050002
000103feff09030002
04fe00fcf40dfbf403
f8fa0af5e903f6ef06
fbfcf9fe00ff0301f7
ff0502fffd02fffcfe
02fa04fef6ee0307fb
05fe04f6d1e802e8f3
fff6fbf6efeffff0f1
fdfbfb0203ff010908
04f500f9dff108eef5
05fcfc0c0afefd0800
fbfcfafffaf4fef9f8
fd0801041309fa0801
fafefbfbfdfbfdf6fd
02ff0105fbfcfff702
030306060707060805
0302fffe00fdfcfbfb
02000002f9fb00fbff
030104fefa0502ff01
0001fe00f801fffe04
faf5f0f3eae9f9eeef
010602020903fcfffd
00060700050301fcfe
010301010906000802
fffdfe01fffefffdfc
f90102f9ff03fcff07
010100000106020609
fdff010000fffcfcfa
faf6fd0508fc060afe
fe02faeaf3f0fcfdfc
fefcfdf1f7fbfef503
fe04ff020807ff0304
0a0709fcfb03faf5fc
0106020d0004f8f007
f900ff1105030e0105
040404f5edf7fd01ff
0108fd0d1504060dff
fe01fffff9fb030401
040201010406020604
fdfefbfdf3f5faf5f6
010401fffcfd01fdfe
0104fe080406030206
0101fc06fcfb02fe03
fd0001fcfe00feff02
0505010105fdfe0400
faf20002f0f40af4f0
f6f6fff8f5f8f9f4f7
ff0101010503000306
fc05fe000302070300
00f50202f7fd03fafa
000402090604070d04
fefbfaff0000020100
0d21120503f7f8e6f0
ff0404fffb04fc02f8
02fcfd04faff060809
03040402010800ff00
11150a04f5f8f7f0f6
f9fa000201fe0802f8
fdfffefffafafcfd00
ff02fef3f3f6ffff03
0506fa0503fa0005fe
fefd02f9f608fef902
fefbfef7fa04fafc04
f8fa04f7f905000100
0105f7000bf40004fa
0f0dfe0601f100fcf3
00fe02fcfdfffbfc00
0300fc0607f80004fc
01f9f900e6e903ff01
05010104e4f803f0fe
03ff00fbf7f3f5f5f8
08f4f4f8dfe6faecfd
05130b071209f90b0c
feede9f5e1e8f4ebf5
020707faff01fffb02
f9fa03f7f0f307fbf9
04040204010203fdff
ff030100ff010304ff
07fffcfdf8fbfff8f9
04050201fa06ff020a
01010400fafd02fc02
fefcfcfcf8fbfff9f9
02ff01000402010103
f9f0f6f9e9effff2ff
ff0302020704010402
03030403000302ff01
03010400020600fefd
ff04060105050008ff
fefffd010201010100
00fe01fbfffafffbfa
030304050300050301
0103fd040a04020900
04090500f6fe04fa00
00010005fe02fef804
140a060cedf6eff2f4
05fb0007f704fbfc09
0b030c0503ffe9f3f2
eff400f20803fe0309
060c0007fafd01fb01
ff080402f3ff080305
ff0603000000030404
03010102fd04000102
050504060409010a08
050501080205040405
fe03020809050a0e0d
ff00ff0402fc0200fc
0101fefffd02fdfc02
040807010507040a0a
fdf0f004e2e103f8e7
fbfffe01f905080405
f3f1fdf1edfcfbecf5
f4f300f9f2fc00faf8
03060b01040e07ff06
05030a05070b080508
f1ebfaf8f6f8f9f7fb
fdfbfe03f3f602fbf3
01fbfcfe0200fcf7fc
f9fbf4fdf3f808060b
fef8020702fe010001
f4f3f9080900090104
f7f6f3fafe02031014
080401faf6f9fcfe07
03050404060100fbf8
fcf900f2f2fdf80204
