00050409040908ffef
05040004fc04070401
ff05fefffffdfd0000
fefe0ffff40803fe00
f90303f70b02f9fb07
0afffc07f6f9040100
fdfe09f7000bfe0303
f9fd0e05e8f60602fa
fffffbfbf4ce0500f7
0109000407020102ff
fcfc01ff0202030300
ff07fdfaf5fb00fe09
05080e02f9fbfefdf9
0801fa1df4e2080000
f40215e10d26f50b0e
f6070cdf0b1cf60300
fe00f9001dfe0a15fb
0510f80912fc070701
e6f605e3f101e8f806
08fe0108f50d05f307
f9fa03e7fffcf40308
06f5fd05edfdfdf402
f8f8fef7f702f9fe06
f5f5fdfa0600f407fb
fefc0203ffff0102ff
ff02fffe00020003fd
010500020a05090907
050706fffc0ffffa04
fffafa01040802ff02
08fe01fe0507fffdfb
04ff04ff04ff05ff02
06fe0108fbfffbf904
070400060101060104
03fcfe01fdfd00ff00
0301ffff01ff000000
fefd000c020b04050a
0dfef90afcfe040004
fdfcfefdfe03fe0202
010604fe0000030000
fbfd00ff00ff01ffff
f5f706fef1f4fdffec
ff000201fb0606fe06
010400030303070600
01ff01ff04ff000202
0804030504000505fe
faf5f208faee0203f8
f9fbfef6f4faf9fafa
fefc00fdf8fafdfef7
00f90bf6fa1701fa11
fd05fefe08fffb06fc
f6f803fcf901fcf803
0305f7ff05f60206f7
01fd0a04fbff00f9fd
04feff08fff90809f4
f906050106fffe040d
fbfb09f8fb08fefc03
fa0303050b020aff01
050404030102030804
070405fdf8fcf8f403
f702fa081e07010d01
050dff0c08fc060803
010300fff803ff09fd
020402030303fd0600
fbfd01fcfd03020004
f8fa03faf804fdfaf7
01fdff08fff00c01ff
fcff0a00fb06fffcfd
f5f9faf505fbf8fbfe
0b06020601fe0bfdff
fc0105fcfd0202fefb
fb02f5020a0301fd00
fefdf604fe00000605
020303f9f5fefef801
03f50a01f9fb0607fb
06080df9ff07fafb01
0500fa0ffbe70600fb
0605fffafdfa010406
020207000803fc0000
03f6f208f2eb030202
fe0019edde1bf8f609
07fefc00f5fefe0207
fff40601fd0a020efa
f5fa0bdeed12df0015
f40201ee07f8f70afc
0bda0c04de0117e90d
fefe02f4fa09f3ff0a
fb01fff705f5f806fe
fefd02f2f20efffd07
02ffff0504fa05fe03
0008ff0004ff00fe02
fbfe000901ff05fc01
0f100d140b1a1e2312
01ff07050407080708
00fe03fdfbfefdf9f8
f5f7fbe5fcfff0e6f0
f9fef7040101fc02fe
02fef800fdfa00fefc
fb0100050600020000
1205fe08fcfa05fcff
f2e7f9f1eaf8fbf6fb
0b000407fd0205fd02
fcff05fd0005fd0101
0c08fa0b12020d0602
0301000801fc010100
fefdff01fefc040504
fbfc00fffafa0a0002
f2fd01f8f3f701f7ef
0803050e090a0a0908
fbfcf8fc0404060e0e
0706ff020205010502
0906050c0a0308090a
fe03080502fe050802
08fbfa05fffd02fdfd
fdfa09f6f50dfafb0d
01ffff01feff00ff00
fe0007fe0002fcfc08
0809f10a0ef60c0cef
fffb05fbfe0500fd02
fbfc08fefb02fdfb0c
ff0deb070ed7080fd5
00fbfef5eefff7f6fb
0309fb08ef030402ff
ff0b04ff0302020905
050203fafe01f9fe0e
fd08fd0006030a0b03
030206050609020600
fef7fcfefdfdfef900
000dfb06030902f805
02fa03faf6090701fc
11defb12ebf80b12fb
03fbfa080b0501ff04
05fa01f9f90ef4f8ff
f6f9faff07eefdf502
e601f8cbfa40f0d614
ff0603ff08fdf4fe06
03fc03eaf31cfcf30a
fc0df3fb1400f90509
0803f9050803fb03fa
fff7effc03030000ff
f2fc13d70c2bef0707
fcf9fefcf10000fb01
02f6fafef8f005faf7
0204f10510fdfd03f6
030004021202fc01fe
0007fe08f8f509f306
2af2f237d2ed12d5fb
06f7fc0be9fa0cf5fc
03f6fcfdf101f8f105
0a0af5f60beb0610f1
f101fdeef8f1050ef7
ff0bf7050ff9070503
ff0503fd09f4ff03f6
0000fafb06fcfeff00
fefcfdfe03fd0404fb
fdff02fb0403ff0106
0103000605fdff0107
fffffffef4fc0bf9fb
fefdf8ff070005fdfe
fe0200fbfb01fbfefc
0e050d0d1dff15070d
fbff02fdfefffc0102
f8fe03fefe03fffefe
020105ff020501fe01
ff02fbfffdfc00fffd
04fafb02fbfdfc0201
f6fcfdfb03fefffeff
0101ffff0303020200
fff6f7eff600edfe03
fbfe0202fd03030108
04f800030904fa050d
040202070208070200
faf5fbf2f3f9f8f4f4
050104010c02ff000a
fa070bf4eefd07fbf7
090703030e030408ff
f1fd05f9f80afafc04
0402f30202fcfefd02
0910d80e0cc20e12d4
fefcf8fbfffafcfef7
fd00040102fefe0203
02f90301fa07fffa01
0003fc01fdf402ff01
00ff0ffc0013ff0213
0705f40907f50306f8
fcfbfef5fefa0101fc
02fe02fdf3ff0101fd
f9fd09fcf80401f8f7
faf6f9f4f6fafcfbfb
0a03ff161f02010c0e
f8fdfaf3f7f6fcfbff
fcff00fd00030107ff
06fc04fef900010205
03fcff01ec03120ce7
0cfaff08fb04040000
03f90301e80bfffbf0
fc0802fff50809f3fc
fb0303faf410fef6fe
0501fb1201e0ff0efa
0106fdfdfbfefffa00
0306f306fff408fbf7
070ff20a10dd010305
fefdfa030e03fcfefa
f00208dc112cfb0109
00fc07f7040ffc0001
0401fffe03ff01fb01
03f8f804f2fb050204
0b01f71b05db03fef5
03fffcfdf30302f7fe
ffeff415f8f410f0e7
fe000505fff7fafffc
fc0efafa080604ff0c
f20406f50e02f71602
f70205f2fb08f60214
09f4fb0afe070ef100
f7fafdf6fcfbfafdfd
ed0302f0fffdfa0afe
000002ff01fcfd01f9
020602fe0101ff0400
0301020701fcfa05fb
fffafb00faf5f3feff
f1f3eeeef6f2f2f4f5
fd02f9fbfcfcfefefa
02010102fd01000202
050204fbeffff9f001
f8fe09fcfe05ff0106
fc0008fb010500fe02
030803fd0002fdff00
0403050201010300ff
ea020def020ff2fc08
0302ff000100fdfdfd
fdfd0301fb0301ffff
ff040301fffcff02f9
07050aff010800ff05
fef9fe010201070606
f30001f3fb06010207
fafe05fae5010cf3f3
f50106fbfd010300ff
0bfbf10707f9f50603
02000502010706ff00
f9060601fa040cfffb
02fcf5f8f504fcf806
0100040b06f60805fa
fd00f8060cec050af1
fd0304fc01fe000003
fe0301ff04fdfe05f9
faf609fbfe0bf9ff06
020203fefdfcfe0103
0105fffe02fffd0103
02f9fdf7f4fb0102fc
000d0309fe0204f805
020505fdfbfdfb04fe
f7ff0203030105f4f6
fbf9fd0000fdfe0501
fefafcf6eff6fefe00
060204fa040b060404
050608080809090c07
fcf40806fa020200fc
0303000401010305fa
fe00f6eeff14fbf91d
04ef0b11dfec1200ec
fafdfeff0605f80307
fef9fafffcf401ff08
01fa08fef20601fff9
fa01f6f80512f6edff
f90004ecec0afe0005
0704fc0306fa01fefc
02f9ff1e00d302f8f2
fe0406f1f6ef00fcfe
0c010104e6f7fdf4fa
fcf90101e4fcff0506
f90704fd0a0eff0001
07fffef90400010100
f8f907faf601edfe04
fafcff0805fe05f4f9
ff01fa00fff800fffc
0e00fd01f8fb08f0ff
05fffe0800fd0202f8
fe00f700fdfa04fdf7
fef6f10401f9020804
000604edf4f8f1fafc
ff010105fb02fdfc02
0103fdffff03040701
0001040009ff000000
fffdfefbfdfffdfafe
020105fbfd03fffb01
00ff02fd01fdfbfbfa
fe010103ff04010a00
fe01ff04f9020300f9
040301030000000605
00feff03000004fffd
000101010102ffff02
fefd01020002010003
0100fe00010400ff04
01f9fd000200ff0000
040501feffff0200ff
0103feff02020101ff
f8fa02fdf70100fbf3
030303060205060207
000602fb020a01fd01
02fa0101fdfef8fc02
fe02fffd01fffa0300
05040404fef70200f5
f1fd00f6f90200fbf8
0403fe010208fffefb
03fff704feff01fb04
fd0405fe03fffd03fc
020700fe04060301fc
0101f4ff03f6ff02fa
0706f80705ef02fff1
fdf5fff8f20bf9f80e
0006fb020bfb0109f9
fff8fc05faf5fcf8f8
f7fa02f800030005ff
030805fe0600fd08fe
faf9fcf7f3f8fd02ff
f6fc03f8f1040500fa
fafbff000507fa0901
f8f804fef90608f809
0604000000fcfe07fd
f7f4edfbfdf2fcfbfb
fa0602fcfd03fbf6ff
f80301f3030b01f0fb
f9fffdeb1007f90205
0b02fd05f9f9fe06fd
fd1006e806f5fcf908
041403f4020cf7e4fc
f9040bff06f901fd10
0203fefafdfd0101fb
fcfd0100f4f500f8fc
f6f80b02f5f9fdfdf7
06fcfc10feef0501fa
fbfdf80c08fa0301ff
00fe03f5fa0300fbfb
fdff05f7fd09fafbfe
01f6ff0aec01080004
fd01ff01fefa00fcfb
eaf306ec0000f60802
e7fa07ecfc0202f9fa
0203fb0104f6fd04fc
040f010914e31202dd
ed04fbed2800050cf4
f10402e91106f91303
dde125eaf121fafa0f
f5fc00f3fcf9f2fcfc
fefffefc0202020400
fbfdf7fd00fbf7fef9
fe0205fcf9090e02ff
fffb01fffffefdf900
0101fdfd020303fd02
110d0d16141413211a
020000fdf7f90402fd
fe0000f7fbfff90009
00ff010001fd02fffd
02fd0202fdfd01fcfb
0000fffd0101fe02ff
fc0206fffb01fcfb00
fefcfb0400fd03fe00
1208040508fd000503
fd0202f9ff00fafd01
010203020202ff0201
fe0002fefd0402fbf9
f7060ef3f10109f8f6
020606ff0804050c01
fffd0705fdff05ff07
010b04fffafe04f8ff
f60307ecd9f805ede9
010101f9f4fbfceff9
03060200fa0100f8fa
fcf807f8f80800ff06
fefef3fff9e20302ea
010003ff0001ff0006
fb0701010df3fd10f9
f9f710f5fa13f7f211
02fc0100fc0203fe02
fef10bfefb0708fa00
fdff07fe0202fbff04
04ff0307000900f805
fef8fcf9eefdf8ebf7
040301fcfa04f3f5fc
040f04030e07ff08fe
f6fcfaf8fdfcfbfb02
f903000bfdf707f9f3
03f9fe0c020507fa01
fc040512260d0d0f04
0900eb0b19f6f70411
00f803f2fb0deff20d
f20003f7120af4f40b
fdf7fbf5f907f7f301
fbfb030afffdfb0500
fc0a05fcfffefff2f7
fefafd0725fdf7ed0b
0104fc05f00007fe00
f8fb04fffd1103ff07
010103fcfe10f9fd02
0805f310fad60807f6
010104020101ff00fe
0105fc0202010101fe
03fcfd01e8f9f8eef8
fdfafb01f7f100f8fd
00fff3fe07f90206fb
0e06fe0e040207fe06
fe05f80dfef106ebf5
020e01ff0a04050302
00ff02ff03fe030203
f9fb05f80a0aef0e03
fc0300f50600fe14f9
00f404e9ff0a030706
fe11f8f815f6020df4
fe0003fcfe01f4f900
0201fdfc03fb080902
020201fe02ff0bf9fe
000305010608020509
01fe06f5fbfdf3f8fe
fcf90004faf800fcfd
fef9fc00f1ff00f3fb
01fd0200feff0107ff
02fd00000005ff0406
fd0005f8fb04fc0003
fcfd06fcfc02feff02
ffff00000302fe0001
1efdf119f9f00ffcf7
07fffb03fffd0403ff
0701fe05fdfcfefefd
02fcfdfefa01fefeff
0501fbff0601fc0308
f9fc06eeff0afef304
080702fb0808f7fb0a
03030103ff01040000
fe00feff0001ff0301
fb0706f8ebfc03f5e8
040804fbfa03fff4f9
03ff0001fd0003fdff
0009fffa0704f70700
fd04f9ff03f903fff4
0109010009f9fe07fd
000203ffff03000000
0002ff02fe0000fcff
00fc02fdfe01020104
fef907fbf405fdfb07
fc0607f8060afd0708
00fcfbf0e2f5f7f7fa
f7faff0409ff03f706
f6f800fbfffafa04ff
f9f1f3f0dee5f4eee5
fcf901fefafe040205
fffafcfdf7f6fbf2fc
04fafa010efa040602
fffffe03f8fc01fafd
06fafefdec0f080007
f90a04fe0bfdf7f203
f71001f6fefff9fa06
010d0004fdfa03f501
fffc0302f506fb02f6
07ff0909ea0201fdf7
fc050601fb03fdf301
edf811e5e6330af5fc
0002feff0406fa0001
05fe05fbf40b01fafa
00000cf9e9f8f3f300
fcfc04f4f20efef7ff
0a0709f9f905f7ff07
0f0cf5fef1e7f2f700
08ff040be8fafcebf5
04fcf60906ef0000f8
0a08fb0d00ec02fef6
fdff00f71009fc1800
ef1005ed21fe1307f8
fa0602ec1502fc0ffd
060a0502f80307f603
0bf7f210f7fc06eafd
fe0004f80802fe0802
fa00fff809f1010604
ecece7e5d8def0efe6
030203fef602fdfa08
fffefd09fefd03fd02
f9eceff5dce0edd5e3
00fd0106fafef8fefc
fefe05fe02fafdfbfd
fe04ff0409ffff0805
fbf5f9f6edf5fe04f4
f00b0f0205fc0402f3
05fd00fe00fdfe02fc
0201fc01fcfa02fcf8
f6e7e8eddfe7fbefee
0402fe01ff01ff0201
01f8fffe0008fb0006
0000fffffef90000fd
f90205fcfc0100fafc
f5f602faf80afcfd03
000406f6f10008efea
ee0407e0e3fbf9e7e1
f90305f3ddfa04f0e0
f5f9fff7f0f4fdf6f8
f70408f5f203fd00fc
f9ff03fbf500fff4f5
fa010bfbf50408f7fb
0105f30402f00207f4
fffa06fefa04fbfb0a
01fafa01f5f1fef2ed
fcf902fefb01fdfd07
020df30510df040ee8
02fef4ff04f90303f5
fffafc01fbfefff5f6
0008fcff00f7fbfff9
fff7fff7fefaff06f9
0000ff060400fffaf9
04fffbfe03fefd0100
f2fcfd0a05f905f8fa
fd0106000204fbff00
05fdff00fb00fb0101
f9f9fbfaf7fbfcf6f9
fb0007fa09f9fefcfb
