ff020501ff0101ff00
010000030000fe0202
050404000301010300
fcf6f807ffff131d15
fe0704fefd020703ff
01fdfc02fffdfeff01
000303ff0301010303
ff00fe020203000102
fdfffe040606f6f6f9
f7f9f7fefbfb040005
fcfd00010705000500
040102080407f9f9fb
02030007050800fdfa
fefcfcf6fafb06fefc
0100faf8f600040205
05040404030af8f8f3
0b0e0a070911040c07
02fe0404010afeff01
fc0200fbf9fcff04f9
ff0001f6f7f700fd06
0703070400010a0304
fbfffe1307fd020610
ede1e9ebdce6e9e4ef
030b01f400f6050205
02080605fcfafefffe
02040305090b030604
f9f3f7f5eef5f7f5f9
fcfbfcfe01ff010201
fffefefffd00fe0201
0503010206fdfe0002
fbfe02fdfe03fdffff
00fc0301fffe0400fb
f604fefa1103fc0dff
f50a09ef090bf50607
09fdf10506f60b08f9
04020809f8040df6f8
0706f503fcf407fff6
0ef9030ff8fd140b07
fdfafbf0fdfff4fa03
fffafb0af2ff08f607
0e04f2fd020ffafcfd
fd06fffdf6fdfcfcfe
000103fe0602fd07fe
020e0604fa03fbf4f4
030905fdfafcfbfbf9
fc0a0af9f5f804fe00
fd0100faff05fb0002
fee8fdfbfe060c08fd
fdf7f807f612f4e007
f90bf6fe08faf808f9
f701fcfbf8fefcfef2
04fdfbfa1bfbfc08f7
fc0a04070f040af8fe
02fbfafce9fbf1e602
050607fcff00f31004
ffedfafbf6ffee0309
050404f806ff06feee
01fa0401f806fffd04
fd0100fe01ff0200fe
f4fefffbfc030202fd
01fffff7fd01fc0efe
0efcf502dffbf5fc06
f70208f905010303f9
f3f702ff04f80cf4f1
03030100000200ff01
00fffdff01ff020502
04070200feff020202
0902ff0a08fe0a080a
040305010101060605
fd0000fe02feffff00
f3f902f2e5eef4e8e6
03ff01000202fefffe
fefdfc040205f8f5f6
02030500fffff8fcf5
0102ff050508fcfbff
01fff90503fc00fafe
09020909050bf7eff6
01fcfefffafefe0100
03050104fdfafcf5fa
09070d0d1115e3e6dd
fcfefb01fdfd01ff03
000702f701020504fd
030a03fb05fa0601f9
00ff010201080402ff
11050808fb020afe03
040104010100ff0401
0101010003040102fd
fd0101f5fcf20300fd
00030000fefefefffc
020405f7f4fcfdfb00
01fcfe00fffe0000fe
000300ff0002ff02ff
f702fbfd07fffc05fd
00fc00ffff0000fe01
0003fffbf8fd000504
010603f1f2f2f9fafa
00fe020e05030a05fe
07faff0c01f60005fd
0505f407fff80c00f8
0303fbfe01fcfe0100
0ef20a07f60a08ee0b
fffcf507fbf109fbfa
ff04fdff00fcfe0000
08ee0a0ee50307e60b
020700fdf9fcfcfffe
f3eef4001d01020200
080bfbfbf7fcf8fcfb
fdfdfaffff04000205
040d03030102070006
fcfafaf9f9f9fcfbfe
fdfa0401fd06ff0204
0008fefefefdfcf3f7
0501030809f2090cf0
050306fef3fdfef106
0207f8fb1407fbff03
fdf6f905f6fa12fbed
03080801fe02030100
f700f30512f9030dfb
fc0d071009fc09ffeb
fd0305e8f4f2f1e5ff
0203fb010100fd03fd
fa1200fa14f902fd05
010501fe06fc0502f6
02fcfdf8fefeff0206
0e050b0d07090a0308
04fcfcfef9fdfbfb01
fdfefbf7faf800fb02
f006faf810f6f907f5
fc02fefcfffeff0001
feff0200fffefcfbfd
ffffffff03ff0000ff
010001fe0102010204
00fd01fbfe00fffe01
ff01fcff0301030402
01fcfefdf9fefdfbff
ece3e9e1d9ddf5f0f3
faf9f4fafcfa0d0c09
fafbf701f9fc090c04
01fdfdfffefe06fcff
000001f3f808020405
fdfdfa04030000fd00
faf8f5ff02fdfefcf8
fbfcfdfff8fd121113
f8f5fbfffafe0b0a0d
06fd0002fa03fef6f8
02f4ff040104faf509
e9e5f0e9dce8f3e5e8
ece2eae4d5dfe5e6f2
fbfc01faf7f704fbfb
f9ebfafef802fff9fe
05040106fe01fafcf7
05fefd020401fdffff
fefefd03fb01fd00fe
03ff00090704fefbfa
0405fd05fbfb060600
0101fffefcf9fafafa
0402ff02fc07fefefc
010407fefbff0000ff
04040403ff02fffdfe
fefffe030402fe00fd
fe04f9f8030701f7ff
f4e921f0e517fbe20d
ff17f9ee1302ecff03
0001fef2f7fefbf905
fa0cfef302fef2fefe
f0fd02e9f607f1fc06
030e010509fb040b08
ebfe0aeeff0ffdf905
fa01f00107ff030405
070b02f7e2fc01ec04
fef4fe040107ffff07
fcfd01faf903ff0105
030a040902fbfaf6fc
00fff5fdfc03f7f1f8
ff0301fcf9fd05fe02
fc0df6fcfff70001ff
00e905efe304f3fd03
fbf5fef103edf81700
f6fc0ffcfa0e0c1301
fafc1df9f400fd1c07
04ff030be9fc16f6ff
0ae008fce1fef3f3f4
fd08040c0810011105
050dfdf3e7f5ff12f9
03f90004f90102fc01
08d9f501df0bf3ff01
030305020303050608
fb04ff0a0df60efffe
fc09fefcfeffff0201
f5f8f9f6fcfbfdfbfe
0102fb03f701fe02fe
ffff0503000300fd07
fd00ff02fdfe000301
fefafa010202040405
fffe00f8ffff00fffe
faf9fcfaf6fbfdfa00
fbf9fc00fe00060602
00fbfd00ffff010200
0303010203ff020100
02080bfefe03f8f6f9
0202fc00fbf6f9fffe
fbfe02f4f3fa0a1113
f9f6fef1fbfb02050d
00fcfc01fef8020408
03020601ff000002fb
0302050d0e10e8efe6
fbfbfbf4f1f2080108
fbf9f701fe0103fe03
04000102fe06fefc08
fbfafd060600fd0305
fcf7fbf2f8f8fbfdf8
000000fe01fefe0000
02fcfc080202fd0400
0003fffbfdf7030002
0d0c0e131212070e09
02fc0500ff08fd0400
0700030000fa020101
ff00ff050907020402
fe0003fc05040402fd
0100ff03fffc0100fb
fdfffefafafdfe0400
fdfc00f4f3f9f0f7f7
01feff0203fd000102
000301010001010100
fbf4fff5f60ef8f403
0600fffaff030c02fd
fbf00a05fd16fef904
010305010200ff05ff
02fdfffdf6fd05fa07
08f8fd0df4f707fdfd
020403f807fe0606fd
f30302f10803f30803
f5eaf1feeaff06000a
0a190efb0801f7eef8
0211f8f3f80102f405
fc00f70001fc0800fc
fbf1f60112fdff1ef7
01f6fbfdf1f801fc00
fc010005fff901fefd
fa02f5020c01040c07
f6f3f602ecf9fde1f6
02fefafff003000dff
f90202fff000f604fc
02fd0205effbf40114
02f004070dfdfc0dfa
faffffff070401f001
fd1103030801090ef3
02fe020304fff4f7e8
0beffd0cc908fdea0d
010204020c02000108
fbf70a04fc0207fb00
faff060104fd0802f8
06fbfe07f703fefc04
fbfbf5fef1fcf707fb
0100fb04fdff000101
05050602030303fb00
fd0301fdfefd010001
fafa0300faff0603fb
0000fffefefc0102ff
fc0401fefefe010100
000000ffff0001ffff
fd0200ff00fe000001
fffffc00fd00010207
0100010001ff02ff02
07ff07060807f1e7ee
fdfefdfefe00050402
fcfcfcfcf9f2090607
030205070503f8f1ea
0301060d0500fcfcfa
0108060e0e06efe4e4
faf9fefffa05050507
050400000402fffafc
f70101f2f1f801f7f8
06ff070a0613f8fd0a
0a090f120b0e0b0d0b
01fbfdf1f9ee05f5f8
ff0802fe02070b0b04
f7f1f3f5e8f3faf4f8
fefffbfefefcfdfff6
edeaece8dcddf8e6e6
02fc03fbf3fbfafd04
fc00fffd0001000302
02fcfefefaf9fcfdfe
0000fefcfafbfffcfc
000701ff0301fffefe
03fb03f8e9fe00f905
fd00fd0002ffff0400
010202fff9fdfefafb
00e9fe09e70201f0fc
fffe00f90804fc0c03
f5ff05fd0c010703fc
04ed02fffb0104fe03
faf60500f00408fb08
0afb0304faf7fe0601
fe0200fc0507fefb02
020afbfb07f7f8fbf4
f4ecf5fcfe00020003
01f7fb08fbfefeff02
f806fd04fbfa0afb02
f6f5f9fbf2f805f305
03010803f7fcfef9fe
eedc0a0410ffff1106
fcfafefef60508fcff
0500f9fcfd00fafc04
faf9fefcf0eefe02f8
fffa01f90d02000efb
07f9f9fff8030f0c06
02f6f6f3f7f6dee6fc
100904fbfdfb01050b
eff8fefef9fefcebfe
fbfc03fd0cf2f51800
07fd07fff6fc141603
fceaf8f6fafc0402f8
040602000100ffff01
01ff0402f402f7fb0d
02f3f8f7dbf9fdf4fb
0509fe070bff050903
03f2fdefecf8f5fefc
fe020204030502fafa
fc0205fffe06fd0106
02010100fefffd0201
ff0207fd0102faf9fb
06ff03070501070404
00fffd000000fe00fe
030100000205000400
f7fd05020407070303
fe04fffcfefdfd00ff
01ff020202ff01fe02
fcfbfb0706070006fe
060201faf8f800f802
fefbfbfdfeff0c070a
01fffefaf1fd0bff0a
ff05fd0006fefef2f3
020301000605fcf4fc
0e0e11080707f1ece8
f9fdf90001000709fd
060e0b060b06080d03
f8f301fefcfc01010b
00fe040605ff010103
03fa0503fa08fffe01
f5fb00fbf8f303fffc
00030afafbfd020300
f30405fafded050cfd
fff8fffcfb02fe02ff
fcf9fcf7ecf8fbf8fa
fcfcfcf5f1f8020101
fe0100ff0002ff0102
00fe03000903030003
030501fbf705020501
02030302fcfe0303ff
fff0f7f7e6eb03f9fd
000201040503fefdfd
fefdf50500f90302fd
04f1f4f3f60100fbfc
fa0202fa08fef902fe
f2080ae1090decfd04
071201010e01070e07
fa0ef9f80efbff0dfb
0e15d6020fe5040cf7
0308fc05f9fd0c03fb
fff9f7050d06fd00ff
ff01fcfc00f6f8eef5
fcfb0101fb02020105
f71bfc03ed07fee502
f6fc0f0f05fc0304fe
fffe0405fdfd0101fe
fce6f5fd1405030e04
fff90601fb0200fe01
fffdfd06000af9f701
f9f9faf2edfcf6f4f3
08fd0306fbfd090bf7
00f802fdeffe01050c
fafe0018fc0503ecf1
f7f801fff70cfaf90f
0a0605080b0f01dcff
02f901f9f402fbfe0d
fc0505fd0afd00fdf7
f7fcf9faf3f6f6eafa
02fffefafe01fe0505
fcfe080ddf09feed08
fc0c020507ff090105
f80005fd0df909fbfb
0010fafffdfef8f9fc
02070b040707010505
01fffc030002070a09
010005f901fdfdffff
0000fe000002010201
fdfdfdffff03ff0101
0d1910010302f4f5f7
ff0004fffb00fefb02
01fdff00fdfffefd00
fdfdfaf9f7fd0100ff
02fcfefaf801040911
f9fcf5f7f6f50d0f0f
0202fe04fdfffb04fd
ff0002fc00020105fd
fdfcfe00020501fe01
010806040803f5f4f5
0508fb030502f0f4fa
02010300fffdff00fc
fcff01060405fb0002
fffa000c0503fd00ff
0402fc09090305fc0a
ff0205030302020302
fc0100fd01ff0002fb
030309fe05070306ff
000705fb03ff0005fa
070901080108080603
0005ff020508fbfffe
fe01fffdfdfdfcfefd
fc0102fa0307f5fdff
020402040401040403
ff01fdfe00fcfdfffe
03070304fbfd020500
0403fa01fc01050200
ff0101fcfefcff02ff
f60607fc000505fc07
f3ff00ebf609edec08
f4fe07faee0cfbe8fd
0002fd02fefa0203fd
fd04f9030afcff01fa
030dfe040cf60313fc
0916ed1415f40313f7
f2f80dfc0208f80607
000407fdf7fcfefa00
f9fcf80209fa0000ff
fbebfbfdee0500fe00
010202010102ff0101
fb00f801fd02040706
04f80b04fb020201fa
11fbff000009fb0f02
f7fa0104fe0003fffc
fd09ff011403020b03
f8f500f3df030013fe
01ef000104fd1f15ef
0404ff02fdfffe01fc
f813eb0534eafaf2f0
020205150d0402ff0e
fbfd02060108f8f2ff
07ea04faf506ff110e
00fd05fd0206030606
04f9090004ffff0200
0bf904f9eb07f70904
010202030002020100
fbf7fefbff03040700
04fc03fa12fbfe04f9
fe04fafd09fa0bfefd
fcfefdfbf9fc01fa06
031112fd0b06fbfe04
fefc01fbfa0002fbfe
02fd01020202fdff00
0505f9f7f7fcedecfe
ff0501fd020102ffff
0003fd00fffd000000
0401010502020102ff
fc0303f9fdff00fbfc
f8faf9fefafd0b0d0c
010400050706fdf6f5
00ff05010509f8f5fc
020703000602faeef5
0b060600fa03fdf904
03fbff020302eaf7f6
ff0402040afef4f7f4
fe01ff00fbf60b000b
fefcfc020005fbfa01
fd0105fcffffff05fa
090103050200070607
fd0104f900fcfe0601
f9f8f3faf9f9f9f901
fcf7f5faeef2f9eeff
050c0a070f0c0a1007
03010004fd04fe0105
fffeff020101fefefa
02060402fafa03fdfd
ff0203fcfafdfd01fa
02040200fbfe030100
020306010a0b070809
0001ff0102fc020302
01020100f801fef9fe
fdfd00fcfffafd00fc
f1f70ef0f60cfdf303
020cf7040bf30311f8
f7f500f0f4f70a03fa
ff12fb010ff4020efb
01e908fbe60104fa04
07fd0b02f80901f306
fd06fdfdfdf8fffbf7
f3fb03f5fe050503fc
fe1000fc01fb01fdfe
00f6f9050207000202
00ff0407ff0202faf9
06f90208000302ff00
0a0f0803f1f8fee9f9
fbf3e9fef6fe03fe05
02fafb06fefd0001fb
050702fdf1fdfffb02
080206f70ff9f61400
02fd0801fe09fff5ff
11f701f91000fa1f0f
100907010b0bf70812
0304fdf004fd00faf2
f2f2fbfb06ef07e1e1
04fffdfef80004071a
0af402fdf900f81dff
04fdfd02fb03fefc02
f90303fc0df803fff3
f400f80806f40cfefa
f30003fd0bf409faf7
07f8ff08ea05fefd05
13dfeafbcffdedf508
fd0000000ffb0402fa
07fefb04f107fdfb0b
