fefeff00ff02000002
fdfefffefffffe00ff
ffffffff0303ffffff
0ef6fb05eceb0d0a0a
fdfe00fd01fffefefd
fe0102feff00fe0000
ff0201fd0002ff0203
020401ff0004fefe00
01fafcfc03ff0105fe
0302fefcfdfbf900f5
feffff020202ff0600
fc07fff70afcf90603
f8fb06fdfb06fcf607
06f4fa04f0fefdf406
000611151c0f05ff04
fe030101f2040cf8fe
04040405ff02f4effc
0100fefdfffffe00fd
020001fefeff000800
0002ff020704050103
02060405ff01f7f8f8
0608010c0e05fdf705
fdfdfbfafefcfffa03
060c030602fff5eb01
fdf7fb160508f3f302
060a02000efefd06fd
0004fb0406060209fd
04f90cfef2ff01fd04
fb010506090406faf9
f80c04e81a11f1f7f0
0d07040a0704ff0709
03edf90df7f9ed040b
02f5f8fffe04010000
0802f2f6ff0dfcfc02
fdf8f4fa0902fefd01
01fffa06020503ff02
feeaf606ff000e07fa
08fcfefd0206fd0006
f8fc06f909f90200fc
fffd0004ff07000105
fffcf902f60600fb01
0002ff02fffb04fdfb
ff02f80107040306fd
fcfbf70704fb03fdf8
f9030b0a240e0c09ff
fe0506010d01070100
0004fb0500fb01fcfb
0507fe070705fa0304
02030304f701ffff01
0304030505fd000aff
06080708ff05030703
050402041002020d01
fcf8f00901f006fdf7
fdfd080100fdfd0707
0f0d060d0307fbfd02
fcf4f9000005000403
fffaf900ff00000204
fefdfdf6f4f5fbf6f8
ff0204030604040704
f9f7fbfcfffc070807
faf8fd03050202090b
0005fefbfcfe010200
08080201f7f400fd00
fef3f60509fe000405
ffffff020601fdfffe
00fc0101fd00010403
fefe01fd0001fbfdfd
0002f702100502ff08
000100050402fcfdfe
ff0101020202000001
f7ff07fbf7fffdfaf7
ff0303000402feff00
010f04f50404020209
f6f7fafa02fefe0d00
03010005f6fb09ffff
fd00fe00fefd06fdff
05f9fe0d0806fff0f6
00f601f7f0f8f9f5fc
0306000205fb01fdfd
02fdfdfe07fc0afe05
030700020002fefb00
eedff3f4f7fc17320b
050701ff0302f9f8f9
020001fffafe0403ff
080c04fafef801fffc
fdfafefefb00010001
040202ff00fc00fc00
f7f4f5fcf6fc12130f
fdf901110e070c05fe
06fb060de01e04f804
00fff7051501fa08fb
f4030501fc0309fff4
f8f5f90b0b080301ff
f4fbf901fcff00fdfc
f7fc0703020603f9f5
fafafdfefd06fced02
0cfcf81c08e30309fe
ff040c0807fb02fcf7
ff07fa11fef304edf7
fe00040100ff0400fd
0c0601030401fdfcf7
0103030103faff0101
fcfe0000fdfd010200
010000fafd08fcfc02
020708080eff0c02fd
f8f9ff02fc01030301
f2e9f3f2e7ecf6eee9
01010505fefe030602
fe05fb061108060f07
ff00fff9fb02020003
03fe05fd0105020804
fafc00010603ff0401
fdfb07f5f306eff9fa
03040100f508040100
f0fafcf5fd05fdfa02
00050904fc02030201
fefffb091c0afe0cfd
000803030505070a04
fa000903f700060601
04fe03020c0b080507
f6f8fcfbf8f60003ff
fef8fafcf7fc040302
fcfdf9fd0403080b03
02030301fd01020102
00fdfffcfdffff0000
01fbfbfafafffff7fe
02ff0401ff00010303
f902fe06fd0602fa00
ff01fffbfeffff01ff
fc00ffff0807fdfdfd
fffd03020000010401
02ff00fffffeffff00
fffbff00ff00fe0002
fafd00fb0506fc0306
02ff0001fcff010404
fd09020002fc01fcfa
0404fc0a0701fd02f9
0af60905e00afef304
070dfc031405020802
fffef9fef7f7fbfa00
0200fd0312fffe0204
fe0502f604f8f6fdff
f902f7ff01fefdf6f3
000105f601faf7f6fc
fd01fe0203f800fdff
00faff030302fc0301
02ff060300fffafc01
01fbfdff01fc010303
010700fe000001f1f5
e5e6eaff01fe130c09
0509030f0c0800f002
fbfcfef90100050703
001301f70503ff0508
010501ebfce0fc0203
f6f809faf711000110
fcff0600ff03fd0a0c
fafb01f8fe0706fb03
f5fef7f100f2fbfef8
f9fdfdf4f4f5fc01fe
000bf9f608ec010cf6
fafb00fdfdfefe0201
04f9f6fefffefd01fd
fc0204fc0204ff0101
fe0102f80508fe0b06
00fefc0704f40100fc
effd0af2fb0201fbf8
0805fe0cfef00506fd
030005030200fffe03
060905070305060003
0206fefc04f80700ff
02fb06ffff02ff02fe
fdff05ff030afd0904
07fefd0b00ff0afbfa
fefefcf5ee05f0f407
fcfd05f7fc02f9fc09
fe060001fef904ff00
010802fafd03f70304
fcfdff0102fbfafd04
fdff03fdf908060308
f9f8f9f6fa04fb05fe
ff0406fafa0401f7ff
f2fdf5091c08050ffe
01fdfffef9f5ff04fa
03060401ff010007fe
040908fefffbfdfafc
0003fefef3fa00f9ff
feff030500fefdfefe
ff020406fcf80402fe
00fc04fcf7fffe0200
09000cf1e8f9f3eff6
110a0d030301fefafc
030206f7f2faf8f3f7
fdfdfffefbfd01ff02
0000fdfffefb0002ff
0103fffffe0000fffe
f5e3fcf30d26fd0a0a
faf1f3faf1f1fbfbf7
fd0100fefdfcfdfd00
000104ff0101000201
fff9fc00f8fafd0201
fff5fbfff6fefefefd
030907fcfa05fffa03
f90305fefe0102ecfe
fe02010304fffafcfe
030502060501fffcfc
fef8030af20c0f080b
09000112150efb0109
fd0cf90117f6fe04f7
070507040a02f7eef6
f6f3f6f8f4fd0c210f
010301010a030501fd
fffdfefdf9faff0802
ff02fefdfcfa01fdff
050304fefcfcfafcf9
ff01fffbfdfbfdfb00
fefe0000040100feff
f9fcfaf70af7fa04f7
0e2307f5f7f3011301
0a03ff0b04e4ee09fb
04fff6010003f80306
fefffa01fdfc00fef9
fbf904f8e9fe04fe02
011104fd0e08070401
080107f2edf7f8eff9
020404fefdfa0101fa
0a000409020003ff05
000501ff01ff010205
fb00030000fffffafe
ff00fef90104fbff03
fe02fefdf8f9fcfb02
f7fc01fcf60708fef6
f4ff0d0202f80701f6
02fcfa0300fffffafd
00050afd0205000705
fe01fe0502fffe0904
fd01fffefffc01fe07
fe0504f90103f504fc
fcfafaff03fbfcfdfd
040400070803050a01
07fbfc00f5fa010001
f7fdfafafef9f8f800
000b01faf7fbfcfbfb
0806fefe01feff0902
05010003fb020001fe
fffe03f7e4f701f800
05fafcf4ddecfde6f5
050d0a040a0b06fe04
050b0ff7f703f7fd01
fcfaf9fd01fc030207
081f0dfffe01faf5fd
02080300fbf601f9ff
010600040002fffcfd
fd0b02fe0200f7f8f7
f0f3f00a12090a0c07
060b08f60006fefefd
141a17f9eff8f2e8f0
03030203ffff030102
fe0201fffcfefefdfb
03ff02030301000400
00fefcfeff030100ff
01fdfe02fcfa02ffff
fdfe00010101fe01fd
fe0401fdfefbfdfcf9
000101fefd01fcfcfe
f9f5fafaf7fffffffa
07faf51107ed0a04ef
fe0805fe0501f2eff7
f9f30504f70106f8ff
050705090a04090009
0301fe010701000c06
f90005f90a0efafe08
f5eef2f8f5f6fef1f6
0b0f050102fdf9f300
fdfefffe03fc0505ff
010300fafefe00ff04
080b03fefefdf6e8f6
01050101020200fcfd
050702060101f9f400
fdfefefe05fe0006fe
00fe010101fc040400
0102fd0d0ff9f7f4f4
ff12fa07130bfa02fe
0300fe0001fe0a05f8
fff5fb010bf8edf8f5
04fe04ff06fe01090c
eef8f8ff050f03f307
0307fb120b04fffcfa
03f8080402010606ff
f7fa08f6fd0a020501
f11c0ed4ff35f8ec03
ff020bfa010301ff02
0302ffff03f8fdfb01
0601fe0305fafffc00
020804ff010000f7f8
efda04cdfd38f7160b
fffdfcfffafcfd0000
02f9f50a07f904ff01
fdf4e9f7e1f0f3f200
ff0201ff0002fdff03
01fff8fdf9fbfafafa
fffd00fef9fc0100fc
faf703f9f6fdfef402
100f060f2a15fc1410
01010c030308ff0005
00f0f70101fa0509fb
f6fcf6f5120df7f701
f8f9f903f6fa0205fb
04fff6fb04f9f3f705
fefe03fdfbfa0503ff
fef8fe0901fa0600fe
f50002fe0afaf9f6f9
03fd02fef8f8fbfdf8
f7ecf5060601050200
03050afdfdfdfafdf9
ffff00f5fe04f9fa02
f3f4fe010102060905
0005fffbff04fd0001
eeeafd050b04040502
080404fffcfdf9fcfb
010101040203fd0304
020001010001fd0000
fd0b0afa0408f3f9fd
fe0b0cf9e90300f6ee
01fd00fdfcf8fd02fe
00fdfd0402000001fe
00ff07fe02030601ff
fffffbff01fdff0000
020303030201020402
011705022505071c08
f8fbfcf8fef3fdfffe
00fdff0703fc0003fc
041004090806fbf401
fe00f9fc06f5fd04fe
fcfefefc03ff01ff08
0307020004fdff07fd
00ff07fd0a03f9fe01
00ff01ffffff000300
eeebebf900ff0f1910
00fefefc00fc050605
fe02fffd07fc050403
030103020304fcf6f9
060406fdf906fd0001
040e0a00fcfff5e0f2
fdfefcfdf9fafdfaff
fefcfd140f0a050802
fe03fcf6ff00f8f600
fd05020302040dfefb
060206f6f2fb0308fc
fb020005fa1002f601
08f8fd060001f70307
f6eef80b0411fdf0f8
00f7f9edf1f9fef80a
f4f307f70a0a02fdf3
fefffa06ffeffdf9f5
fffffe03fffdfd00fe
f8050614fddafefdfe
fd0102ff030200fd00
fc0003fe02fd01fd00
000309fb030e0101fc
02000101fcfc01fefe
fb02f70904f4fbf8f6
000206f4f6fffa0101
020201fdfb00fe0101
05fe0300f8fbfaf901
fff8fe01f8fdfdfdfc
09fafefff100fbf7fb
01fcfefefbfffbf8fb
00ff0204020104fcfe
04050305000204ff04
fd08f8fbf5eff4f5eb
000602fff90303fc00
04030bf8edfdfdfbfe
07050707fc060805ff
0701fe03fcfff902ff
080705011d0ff90b02
050706050605060408
01010000fe02000402
09110cf7f704f1e9f3
040105030002f9fafc
04ff03f4f2f6faf6f7
fdf9020308ff030501
ff0003fffefd050604
f7eaed040607020707
050004fefcfdfcfcf5
0500020af9fd0b0707
fdfefafef9fefefe01
0200000103fe010103
fefeff00fdfd00ffff
02f6fc03f5f5050404
00020100ff0401fe01
fefefd00fcfcfffdfe
000301010302fffefe
fefcfffefcfa0000fb
fcf700040002faf6f7
000105f5fd0df8f902
02ff00fffbfd020000
040000ff00000104ff
020202fd0901fc0203
faf5ff03fbf900fd03
f5f9f5f7f1f602f802
f8f8fe000303020d01
f6faf9f9f5f703ff05
0304fc0104fbfdf0fd
000100fdffff02ff02
01040100ff00fffffa
06fe0103fd04f7f705
fc060801080903f2fa
0a0408fffa00fffefe
0210fff10102fd0704
010bf8fb0fedff00fe
f6f6f508faec2005ed
fe0604040c08020a06
fefcf80300fcf9f9f7
02f8fa04fa05fff20a
feeefefcef04f8e5fe
f2f6f30310fcf5f9f7
fe03030400f902fb01
05fef809f9e80202fb
060801fd000303fd01
0100fd00fffe00fe04
fcfcfffaff0804fff9
00f7fffe0001fcfffb
03010402fe00020001
fcfdfb01fafb01fbfe
07fe0403fafe01fffb
fd0202fbf706fcf905
fbfdfa0005f702f9fd
fffffc02faf9fdf5fe
fd01f9050bfc01f8f9
080d070a090c040f09
01fe03fdfd06fe0401
01f002f4f502edfe00
f8edf4fcdaf100fafb
0002f7faf6f6f7fbfe
fbfbfb0601f70302fa
fbff01faf5f4fcf2f0
fe02fb060ffff9fcfb
f6fc00fbfb0a02fd04
0800fb03040b00040c
f8fbfefaf602f7fcfe
ff080600fe0302fa00
10110a030504faecfe
fefa01faf806fdf900
020504fff8f9fefaf6
fafcfafdfefc060504
02fdf9050705030605
03f8f6ff0306ff0905
f4f3f6050802060804
00fdfbfc040500ff02
ff02fa0a0af7fc080c
0300ff01fe03ff0100
0304fe0400f7fdfafe
01ff0102010402fffe
00ff00ff03fdfefeff
fcfbffff01fdfd00fc
fb0402f90204fcfcfe
020a030002fefef9fe
02fbfbfd06000006ff
fe0806090c00060902
000500ff0a0200fefe
02010908f3fd00f500
06f4fcf9f1fcfff900
fbeff1f4f0f4f9f4f9
0107fdf9fafb030105
fefefbfbfafc010101
fefc01fffe010201ff
030101ff000400fdff
050303020305fdfcff
0a0d08050705f5e7f7
020e070200fcfaebf9
fffbfefffd04040402
fafffdfbfbf9040306
0309fff104f2f908fb
fbf8f907fb0700fd09
0df9f9080204f80a0a
03f30105fd05fbfc08
030003010e00fdf9f9
f8fb00fd04fafef5eb
0101fc04ff01fe0103
f7fcfbf408ebf609fa
0300fdfefc03010003
fcff02fefcfc030100
02000003fe01fffa01
f9ff00fc03ff00fc00
03030102f906020007
07fdfafdf4f801fdff
01fd0100f407ff0206
ff0001eff909fe0604
fffe000101000504ff
05ff03fdef03fc0103
0708fb07fc05000502
05fcfdfcf202f8fb04
fe01fbff03f70200f8
f800f8fb02f602f1f9
02fb06fefd11fc0809
f8fefbedf4fcf7ff04
f8fafafdf6fc040102
01030307fb06020001
0404fc00f6fcfdff09
0600ff07fcfffe0302
07fc00080c040509fe
f70301fe05fc06f6fa
00fcfff8f905fd0104
0412000b2003030bfe
000101faf8fcfbeff5
01fc00040204050402
02fb0204ff030202fd
00faff040504050901
fe0405faf9fa01f9ff
faf2ee0201fe070804
02fafc010203020301
02f903fc00fffafaf6
