fdfcf9ff0301000306
04fa05fafd09fffd02
ffffff03fffbfffcf9
ef0108e60413f3ff09
020606020efff90502
fa030101fe0505ff01
f7ff03fc0202010701
fbfb0202fafaf9fbfa
ff0204f803ed060104
03f5fcfefbfff70402
fffcfaff01060a0604
fdf904f5f10e080901
fbfe02f704ff09ff04
0ffff3f8e400050d05
fafa000b050001f8fe
ff20fe17fbf2fdedf8
0afafa05f5f1fef6f4
03030402050405fd03
04faf906f5f403f7f6
01000700f70001f9ff
05fdf604f7f610fff6
f70601ec0401fe0901
050000030202050103
020104ff0805e1f8fe
020cf8fe160ef9f401
fdf80411f7f40b03f9
f8f9fbfffcf9050c02
0708fcff0402f9f607
060b0604fafb00fefe
05f8fe0bea0303ff0b
f2fc18e3d60209fc03
0b0bf5031c05f1fbf8
01fa00fdf901020003
020500020300000201
0202000306fffcfefe
fcfdfd03ff00010102
ff010404fa02fdfbfe
010703faf90201ff02
000102010103ff0102
04fc03f8fa02ff0205
fdfbfdfdf901fdfbfe
00fa01fefa020404f9
0001feff0304ff0506
f40215ebf922f2031f
fbfc08fbf40803f609
01ff070a03ff0d03fb
02fffffefa05f90008
fdff020402f8060000
fefdfb0001060404fe
01ff02030000fe04fc
fafe02ff0107ff0004
00fdfb02fb0802f904
03fdfc00faeafd04fc
0601fc06fefc010301
03fcfffdfc12fdfd04
feff030101f80201fa
010300030607fe0204
0011fa0e160bfc03f8
f9f0f9040500fffafe
f901f9fe0bfcf903fc
fb03fe0f0f02f9f5ff
0902fcfbf5f6fe0604
fcfaf80c15fbf8f9fd
030706fbf1f404fe06
f6ff01faf9fcfdfafb
01ff01f60604f6030b
fbff04f90508010202
00ff02fbfe01f9fdfd
01fc02fe020cfcfb06
020004fa0004ffff04
fdfafafefd00fbf901
01fcfaf7fe06fafe04
07fffe04f9fef9fffc
0800f903f80701000a
fe120b1905ea02e9f8
fef2fbedf90101090e
1209000a05ff070aff
01fffcfaff02f90203
fbeafbf6fb0400060b
ff050d0707f000f0f1
0300fc0400fb0e01f9
fb0603030607fa0001
0cfcfb050300030001
01f2f20df2f21608f5
fbf90100f90303fe07
fd0102020303010605
fde9ef06e6ec0a0cfa
f80701fb04f9fd0200
02fefbff0403fb0103
0702ef0219f2fc0802
021406f90706fefbfc
fee4f80cfbf90808ff
fe0105030309040307
fceceef900fffdfefb
06eef10a03f7000803
06220df0f717ece1f7
0100fe060401010101
0001ff0404fd0200ff
060101fe0301fc00ff
fd05ff0205fefffb00
0c06030a0403090502
fdfcfffcfdfaff00fe
fefd0301fc01010001
fdfefdff00fdfdfb00
fcfe02fdfc06fd0007
fafefff0ff10fe0405
f9fd05fdfa09fb030c
f9fb06f7edfffcf1ef
04f5fb0afbff0bf7fb
0504010207fcff0100
030c09ff0911fffefa
fe0103fb0308fd0207
0800fd040004fe0106
0300fe01030300fe00
0101fa030103fdfdfe
01fc0204ffff020a09
06f5fd0cfcfd0cf904
00fdfeff0002010000
fcff03000505ff0302
fbfc0202fffbfffef9
050f09111008f2e6f6
01010609fc0a02f902
0806f603111bf8f2fb
000100fffeff01fc01
0d0f0cfc0301fd03fc
fefafcfbf9ff02fb00
020200fffd0001ff02
fbf5fb02edff08fa09
06fd0001fa02fd00ff
fefaff02f002fdfffe
0207020909020803ff
0304ff0401010102ff
f9fafaeffafcf4fd02
0bfeeaf211fbec0506
fd06fc0201fbff05fe
09fb0204fc02fefb00
fd01f40c00ff000202
050c090d02fefcf8f7
04ebf6fd030b0a0902
f5fc1521160411ecf8
f6ecf9f4fd07f90405
ebfb0df7faee00fefa
f9ebf6fbfd0e070a02
f501080d0ff601f5fe
f60103eeff02fdfa01
ef0f0fd4150fe30912
f7f70108effb0d02fc
04fd00ffff02fc00ff
fef3ef09f3f51201f4
06f1f711edf40f03f9
02fafe05000303fe05
ff0809f90409fe0406
f2ba0313d8e40af5ee
f50005fce10d0df403
f9def2fbe6f406f8fb
ebf415d7d60cfffc01
fae80204fafdfc07ff
fde9f9f7f4f4fa0002
02e8f2fdf1eb040c04
f40409fbf10505fdff
fffe00fffbfe010100
fcfcfffcf903010201
fe0001fdfd01ff0002
01fdfefdf8fefdff03
fefffe05fc01060302
0209fd0515fb0405fe
0100fd01fbffff01fe
0001fffc04fdfcffff
0002ff03ff01050600
07ffff07fdfb030001
01fcfeff0304fafe07
fe0103fa0102020701
01ff03020305fffe04
f9fe09effa0bf30106
fefff8ff00effdfcf1
0603f303faf2faf903
fe0106feff06030308
08f9fa0deff605ff05
050903fefe03fdfafb
ff020500fd00000604
f5f304f8070f080103
f0f210f5effefbe8eb
0102fdfcfdf8fefffb
fefd0a00fa01fffb06
03fef5fc02f4fe00f9
0002f90100f5fa05f3
07fefb010102050508
01f5faffeff6030105
070a06fef9fcfaf5ff
f5f0f5f8f7fd06fc06
041106fe01fffef7fd
fbfbfcff09fdfd02fc
02fefd08fcfd05fc00
fffefcf7fe00030202
000005fff50607fc04
01fc0106fffb0504fc
06fdfa1d02e90afbfa
ff0305fb000d04f900
04fc0409fffcff00fa
0dfce61701d80900ee
05ebf6dfd718f92111
f8030d1611f7faf3fa
f2fd100f26ff09e1f9
fe0804080bff06fbf1
050b020bfefaf8f8fd
0104eff9f008fb0e07
060500fefcfefe0505
f4fb0bfc0dfa0ffaf8
f30402f30606eb0206
f8fe01eb060eec020f
050904fd0e06ec0a06
07fe0102fe00fcfeff
00fdfefb00fe02fffc
ff04fd060af7fc08fd
fffe03fefafd0a00fc
06fefb05f5f70901fa
00defb0ef301050306
fe041cf9ed0207fbfd
02190ee01221f3e7fe
fa0a03f80504fcfe00
fbfcfb0305fe0607fc
0afdf30907f901040a
0204fb0602f4f90705
f7f8fb01f701060104
000002fcf400000000
f900fc040bfd0205fe
0105ff00f904ff0101
ffff01fe0101000100
feff01ffff000102ff
020200fdf401fcfc00
020201040001000001
fdf802fcf20102ff02
0402fc0701ff0801fa
fcff06f3fa13f1fd1a
03020204fefa0708f3
fe01fff8fe0ffd0607
f8f909f3f911f2fb0e
030200fdfefffbf602
0105fb0104fcff0104
fe01fffc0100f70002
02040102faff04fafb
0600ff030101070705
01020202fd00fefc01
00fdfffffe00fffffc
f5f90de9f629fbed0d
0107f3080acbfdff00
f900fff8f90d000108
d4ec28b8e07fe8dd0e
fdfafafcfef9fb0bf9
080509faeefa030004
fbfc04fe0102fe00f6
fbfefb0102fd02fefd
feeffcfbfdff080a0a
00fffdf9eafe01fd02
f9f9fc01150cfa00f8
faf4fafc0cfe090506
f900fa0303ffff0202
0a02f90a00f70601fe
0a00f70301f9fb0301
fafe07fbf4fe01f8fc
0105020a06040907fe
fefdfa0302fafcfd03
fbf7fa0df9f60400fb
01fdfef8fafff7fc02
0f020604000404fffb
f6fb01f60603000704
f9f5feeced01f6ff08
0bfafb00f600f405ff
05100f080cfafffcfb
ffe0fed4f117021604
0614041203eefaeef2
fcecfdf9fc06fdf9f7
06010403fcff0400f9
fe0001fdfeff08fdfc
00f9fbfff9f90605ff
fa0105f20504ecf705
fcff03fef9fe000805
fdeff702effd06f5f6
020902021005000200
03f9f710f9f70c0aff
0914ffea0803f90202
fd020002ff0102fbff
ff01f908fe06020306
07010200fb0c01f7fa
0718fdff1000f2f5ff
f6d80cfff4fa101f05
f70007fd0502040402
fbfa06f3f60001fa03
00ff01fdf800010103
0104fdff0201000100
fcfd00f8fafd01fdfc
fa0000fbfb03030102
fe0102030105010102
fffd0001f9fd030002
0406fe080302ff0100
00fc02fff901fefafe
00fffc0b04f00200f6
ff00010304020001ff
02ff02feff050802f7
03fe0109fdf103fdf6
fefdff0100fcfe0200
00fdfd0200fffcf901
00fdfffffd00ff0205
fefc02fbff05f9fefb
fcf6fdf6f908f8fe03
f9f701fcff0e010404
00fe03fffc00040203
01f7f406f0050dfffb
01feff0001010200ff
02fbf9000100fefeff
010207fdfbff00fe04
fdfe04fc030afe0408
fdeffef8f8ff010204
e8cfecf601fe0c2f0d
f8f9fdf6fdf901ffff
000207faf7f802fef9
0a0d0502fd0206fd00
05fffdf8f00106fc0a
f3dbee0d08ed0e260b
fbfe0102fe050400fc
fd01ff0008010000ff
fdf9ff08f8f715fbf7
fd04fdfe0700ff0201
0b00f1faf601f5f809
05fe040500fc010305
020100060e03040c06
040001060101f7fd02
010200fd0307fb0406
0506fef9fafdfbfe04
f30305fff1f4f9f7fc
f7f705f70103fe0002
faf0ff00f400f107f9
f4f9fafef8faff0108
f4080c0910f306fbfa
0f08f4f5f307030a04
02000805fa0007fd05
04f9fb0bf7f609fdf9
f9f8fef4fd07f8fc04
07fcfc09f7f71006f7
feff04f70103eb0a02
07eff70fe6e816edea
08fbff07f8fd05f3f7
06f7ed0bfcf70103ff
0401fb00f9fe04fe03
040afe091303fefe02
fb0afff5f0f7f6f8fa
00ecff08fcf70608fe
f2fa0b15ebfe0afe02
f5ec030e08fcfd0e03
000b0afc090af4fb05
0307f8041303fa03fe
faf2fffff9fbfe0102
0000ffff070100fffe
fdfafa09fefd00fd00
0100fffffdff01fe00
0202fe00fb0500fffe
ff000200f901020000
00fdfd0503fffefe00
03f904fdf400010103
030003ff0004010203
00fffdfd0102fe01fd
f900fef5ff05f40100
07050200000801fb01
fffd0003feff08ffe9
01fc00fffafdfdff00
000201fd011304070d
0605fe090af409fbf7
fdfdfffdfbfaf9f900
fdff0501fe0301ff05
fc00fff50205f5fc12
fe00fcfe0101fe0305
f0f813f9f50cff05f1
fefbf9fb02fdfc02ff
01fcfb02fefb00fcfc
fcfd1201fdfd05f502
fefafcf7f00ff7f406
f6f7fffdf6ff040702
f6f0fbf5eefffef607
030402fb0206000104
f413f5f813f9f5eefc
ff01fe07070606000a
fbfefdfe000602fc00
02e4fb0dfa030d0e09
0402fcfefdf7f9f3f8
1bfef336fddc1701f5
fafb0402fa060600fc
00030904fbfefdfb01
0300010901ff0a04fe
fa0100fd0400f90001
f2eff9dfd5dfedf1ef
fffefd0402000003fc
01ff030100f8fafdff
f2f3f700fc0a0c0a08
fc0003000af70fe3f8
0d0008eaf911fd0302
fcfe000000fc00fefc
08fbf9f8f507040103
f80f0afb0df708fbfd
f70805ff04f60700ff
ebebfcf0030a010902
fe0809fc0a0b02fd03
02fefd03fc02020301
04050107fe040ffffe
010000fefe0200fefe
fe01fe0100fe0601ff
06fefc0af6f506f5f7
04f2f807eff707f3f7
ff01feff0701fdfefe
ff030405f6030803fc
fe0401eaef0f00f7fe
fdf9ec0912fe060e03
00080300050201fe02
030bf8fb0604fdf3fd
0612fcfd1714eef1ff
0800faed0e04f8f902
fff6f0060200020303
0101fe0300fdfe00ff
0204fe080efc070600
01fe0200f60202ff02
05090bf94510040c0b
fffcff00ff0101feff
01f9fdfffa01fefe01
0303030b020000ff00
030800fc01fe000100
fcfe04f4fd10fc020b
0101fa06fdf7fefc02
01fffe0603f601fcf4
fefefefafafff8f802
02fafb0bfaf605f9f8
05ff02fffc01fafc12
02fd02fe020a01ff06
02fd0405f901020101
fffcfff5fcfd0100ff
0000f600fbfaf4fd0f
010303fdfa0201fdff
0104050306fe030704
fffc04fcf90400fbf9
080c0109080900f0fd
00f6fb0303fc00fd00
03ff0003fdfc0402ff
0a100df60605f8f6f9
01fefb030102fbf4f9
faff07f4f90104ff02
00fffc000202040200
f7f9f5050f04000c03
f8f50207fbf40a0705
f9fe0102fc0005ff02
fe0400ff0900f4faf9
0bfdf903fafcff00fd
fcfffb0303f60001f7
01050201fcf805fbf5
0702fd0508fe030400
fd00fe0af3fd030301
0200fcfeff00f8fc03
0102fb0509fb000601
f50109dc07140001fa
f6fd09060df609f3f6
f2ff0b0413020af7f0
f50f18040ff911fdf1
f3090c0c12fb05f3fa
020609ff0a07fcfcf9
03e6e8e0de04010b09
fd180dfc0aea08f8f8
fd06080bfaf1fef8f4
fd0206f9ff03f70904
07f7f70ef4ed0a00ef
04f9feffedf6fceef0
0dfbf90ef7f5fffaf8
f2ff03ec0909f8fc09
f40201f90706f50007
04fffa04f4fafff2f9
fdf80301f7ff0505ff
f60008f8effc0003ff
01ff07ff09fff906fb
102e0aee1c06e6f4f9
010e07f91006f2f500
052124f7d5100cf7f5
01f3f2eeec05fff802
091a01081e0df2f704
02fbfd01fc030703fb
000300fefcfd010300
fffefffefaff01ffff
00fdfdfefcfffd0000
fffa01fcfb02020000
02fe02fff501010001
03fcfe04fdff040200
fffcfffefd01fefefd
ff0400ff00ff00fdff
fefc0005fcff0a11f2
fefb00f6f909fbf808
03fffd00fe03ff070c
f6effcf4e3eef3ef03
ffffff0d05f604fffa
0204ff0cfff206f2f6
fdfffffd0002ff03fc
0000f90801e806fff1
010001fcf904fbfa02
fffeff03040002fdfc
ff0700fb0300f9f9fe
fdfffefd01fffef9f9
f90006feff03fffe04
0905fb06f90305f7f5
fbffff020501030201
fc0000fef7f4f7f500
0302ff0004f90201fd
fe040004fefb00f702
fffd0704fbfd02fc03
0100fb02010400fb00
fafc04f90004fc0005
080302f8fb05fc0302
01fbfc06060201fb05
fbf9fcfbf2fc000c02
