030302060506fd0507
040400070201010401
fefcfefefdfefdfefe
fafcfc0403ff000002
02fd01010001faffff
01fbf9fcf4ecf8f2fa
000303010506020400
fd040a0610140b1409
fcfb0501fd04fcfa09
fe01fe030304ff08fe
010101000600fd02fe
05000403fffcfbf7fe
fefd0104080404fefd
fdfb02fef9fffdfa01
0107ff0308ff000000
020202fdfe01f9f405
04010402fe010001fe
000000020300020200
0001fffdfe00010101
060d0803050bfd0400
000401fffdfc0805ff
0200fc02fefc02feff
ff010003fe0100ffff
fdff04feff0602fdfd
020301060402030101
00ff00fe01ff00ff00
fe00fefe01feff0404
ff0000010504020303
000001000502000301
ff0000010502030103
060301030403030401
020202010301010002
00fefd01fc05020105
fb05fb0105fd00fd01
fefefffe0500fefc00
fd03fe0007fffc04fd
ff0105060e070305ff
fefe04fffbfb03fbfa
0a0500040209080b04
0302050103fffb00ff
f9fefafffd0203f902
fb0802fb0403000303
fffdfffe0303010100
fdfafef6050af8fe01
03fd00fbff02020000
fffc0305f3fc01fbfb
fe03fefefe05000007
fdfefe03eefa06f70d
0600f8070205fe0004
0811030b17040203fd
fdf9fb020302fefd01
f2f7fb040c0401fe02
00fafb020401080404
01030401fff9fe02ff
0303fef9f8ff00fffb
03fbfdfcf9fc030605
00fffe02040101ff02
010402060201fe05fe
020200020105fe0303
050c070b0c100c110c
fcfc0700fc0409fc00
08fffe030402020203
03ff00020700020205
00fe02fefafe05fc01
fcfdfdfcfe01fcfeff
fbff07f80602ff04fb
01fd02fc0105fe02ff
fefef9fdfafbfcf9fa
fe00fe080e07050903
fe010604030004fffc
00fcfffdf9fbfdfdfb
fafc02fa01070103ff
fe03000205000103fc
ff0e0104fc040009fd
02fefc0207020101fe
fe0001ff00040801fc
070c08050904010c00
fcfbfbfafaf9fefcfb
ff010300fd02020200
fe02fbfc04fe020b03
020402fefbfe01fffd
04fe04fa00fd000401
030000010001030602
f1f6fce7e3edf1eaed
0002fe0103fd080a06
030200fcfffefefcfc
08fdf6ff0c04000703
fffefd0002ff030203
000000030301010401
00f7fffdedfbfef2fe
000302000602020200
ffff040303010206ff
000600050c06000701
fffffdfd00fdfbfefa
fcff00ff02040002fd
fcfbfbfbf6f8fbf6f9
020604151d0c090d00
010602030601000a01
0601fc0a1508050a03
fd000502f8fc0401fd
fd0904040c08000a09
010202000100020200
06020404fefffffefa
00000202fefd02fffd
ff01ffff0801fc0c00
fefe01fe09fe05fffd
fefffefe080300ff04
02fa00ff07fafd00fb
0205000e0d0b050bfd
0001feff0502000503
06fb00fafc06ff02fc
ffff00020203faf7fd
ece7f5070e07ff0405
f3ea00fff508080a0a
f3f8fd0808020303fc
0105020304fe030001
fdfff8080e020007fd
fefc03fbf602040003
f9fe000006010105ff
000600ff01fb01fffe
0307010507ff020203
0201ff0003ff050603
ff0002050300ff0205
f3ecfff1e9f5fceaf3
08fc0702f8030c050e
00fdfefdfdff0001fc
f7edfbf2ecf3fbe8f0
fe00fefe05ff0104fc
0303fc0905ff0704fa
01fef7fbfe01fe0101
fcf7f6f7f1f4fcfcfe
00fffcfe0103020200
fdfcfcf9f6fbfff8fd
fbfa01faf7ff03fbf6
0300fc03fdf903feff
0200fe05ff010402ff
fd05fff6fcfff7fbff
f7f2fbf4f1f9f9f9fc
020203fd0104fefbff
0201fd0202fdfe0600
05fefe02fb020c0200
fafe0000fe010417fe
02f50201ff02fef401
fa03f9f9fbf9f418f6
0200fdff01fd020102
030102fffa02fefbfe
0004fe020501000400
00fdff0200ff000204
00040200fcfefdff00
01fefbfdfefffef9fb
fcf9fdfe0005f9fa00
0c0f010b0e04060509
030301000402010801
03ff0102fa00fefbff
010403030305040302
0201ff020102040701
030304020305010302
fd0303000908000805
010301030302fe04ff
fb0500ff0200020503
fefffe01fefd0303ff
fb00f9ff03fc0302ff
00ff0502fffc0504ff
01fcf9fbf5f9fafdfa
fe0200fdfb010a0600
060509fcf5fdfcfafc
02ff050001fffefc01
fefc00010701030304
03fc0206f6fd02f801
fcfdfa00f8f7ff0405
03fa01fff908020501
01ff02fffb0801fe01
03fafe0100f90003f7
0700fdfef5f2ff00fc
fefbfc01fcfe010101
f90c00fe07fffcfafa
f7eff8faf7fe040603
0909ff02f8fafdfcfd
fffb08fffafafefcfa
fcf1f2f6f6f8fbfaff
fdff02fffa00090000
fdf9feff03fe00feff
03010301ff01040308
03060203030400feff
ff00feff02fb03fbfe
02fcfffffe0001fefe
fe00ff0101ff00fe00
020402050602010502
00fc00fc00fffffd00
04ff04060104080402
01fdff01fc00fdfdfe
f9f8f6e9ebeaf1f1f6
02020007fef608f6fb
00fefdfb000d050afa
020405060608070704
000001010502020103
01ffff0605fffe0001
fefcfafefffaf7f9ff
ff00fdfefffefefcfd
fcfe02fafaff01fefc
04fb0300f9fcfce7f7
00f70101f603040206
06fdfd02faf902f4fb
0202fd030303ff0203
fa1df9fd18fdfb07f9
01fa0500030001f500
fc0301fe06fefff9fd
fd08fb0002fe0311fd
000100fe02fe01fe02
0203fd030a05fcfcfc
fe0201fd000202fe01
fffcfdf4f5f7f7f5fe
12180d000400efeeef
fc05fe010401fcff01
0000010302ff010301
01fffe00ff00ff0001
010303010502fe01ff
04fe00fdf2fdfdf1fa
fdfffe010202030304
0101020304020301ff
000300000501000200
01fa00fdf4fdfefb02
020405030607030604
0202ff020201030200
040404fefffffef8ff
040002050205040902
06fbfefcfcfffc0502
00fdfcfafffefb00fe
fcf700fbf7fdfffcfe
010101fffcfefbf8fa
01060404ff020b0407
f6f3f6fcfdfdfbfdfc
03fefc08f6f407fdf8
01fdfa0400fe050704
0404fd04f7fe03fb00
0004fefe05f801fdf8
030407ffe4f1ffffff
fcfefcfff6fa01f9fb
02fe02000201fe0901
02faff04130dfd05ff
f7f1fcfefb00fcfcfe
0a090af7f6fc08090e
fffffbfd00fdff00fd
0202fd0401ffff00fd
02fbfe00f603060302
070405fbf6f807fe01
050403fbfefbfc00fd
fef1fafdf700fefc04
03010500fa0002fd02
ffff00050501050401
01fe02fdfe0101fc03
08fd05fbf200fbf803
fffefbfff9fafefd00
fefcfffcfcfbfbfb02
000104010500020001
fdfdfffef90100fe02
fdfffcfbfafcf8fafe
feff010102fd0301fd
010404020101030100
0502fd01fdfefeff08
02010605080b030904
faf1f0f4e7f3f2f0fd
0100ff010202010301
01faf6f9f5f8fefcff
fcfdfcff00fc05fffe
fdfdfdfa01fcfe06ff
01fe0403030301fd00
fefc01fcfcfdf7f400
ff01fe000100010b08
fe010300010003f903
fdfcfafdfefafc0afe
feff0400fe020306fd
fdfd02feff01030504
ff000100feff080704
fe0101fc02fcfe02ff
fd0502fbff0000fdfd
00fd0102fdfffefdfc
ff00050000fcfe0200
feff00fffe02030205
03040101fffe00feff
0303020808030402fe
fe03feff0704fc0306
ff0101020202040104
01ff04fdfd00fcfefd
040406040105020506
0605020305000101ff
fe01020107000303fe
010302040404010702
fbfefd00ff00010004
f8f2f2eee3f3faf4fe
fbfafff1eef8fdfaf9
010304fffffefd0403
040306fe0102030704
05040604fefefefcfa
f7f5ffeedff2fbf4fb
f7fb03fcf7fa03fffb
02050601eef6fefbfb
070005fefb00fc0203
07ff0305fdfd0000ff
fb0203fffafa02f701
01020203fcfcfdfbff
03fbfffef40001ff02
ff0202ff00fefc0500
040801fe02010007fe
0406fd0a1303010405
16240f0a1300eae8e9
fbfa02fdf5faf9f8fb
fffcff02fe03040404
fffe02fdfafe030203
f3f20201fdfc0604ff
14210f0610fdebebeb
f8f600f9f6f501fdfc
ff0605030203020405
00010500ff01050502
0101030203ff000301
01fcfefaf8fa03fc00
0101010102ff03fefe
030504feff00010501
02fffffd0002000305
040403030705020003
020605090905010604
f9fd05f7010303fef9
fdfefdfdfbfefdfdfd
01010000fbfc00fc00
01fffffefdfbff01ff
0204ff020102000202
000305ffff04faff09
01ff000404010302fe
01030203fe02020303
fa02f6f8f0f3fffcfa
fd00fd00fd000600fa
01ecff01e5fcfff400
05f9fd06000206f5fb
05000107040200ff08
fe03fdfb00fe03ebfd
fefd0300fe01fdfa00
02010102ff02fe0201
feffff030602030304
0a0805090802020703
fc0300fdfefffdfefe
000103000403020501
03f9fdf1f4faedf4fa
01fffd0204fffffdfc
020301000204ff0102
020302000201020202
fdfffdfefdfd01fffb
fefdfd0001ff0206ff
ff0002040204060108
030101050303020405
0603ff010005030602
fe0101ff0104fd0101
030203010102020606
0303ff050608010302
fe00fffefe04020603
ff00ff03ff01010100
ff0204010bfd030bff
02fcff05fd00000100
07fdfcfefe07030604
060306fffafffaeef9
0004fe070805080602
0000ff020606ffff03
02fa0606f600060904
04fefc0201fefd04ff
04ff0102eef305f7fc
02fafffd040103fdff
fe0101fd020a020102
03fffc0305fe01fafa
ff00fe02fd02010206
fdf8fd02fe01fd02fd
f5eff3f4eff101fef9
fb0403fefd010204ff
01f60afaf9fc000200
fff90407fb0401fefd
00fc01fe0200010102
07090e040408fffd00
0400fdfff8fd020305
fe0303fd07fe040604
020602090a03040401
00f204f2e6f7ffec00
01fe0102fe0301ff02
fcff010404010300fe
fcecf8f2ecf9f2eef8
0201fefaf5f8faf8fa
ff0001030001fe0302
000101fa0104fe0203
0202fefefe04ff0302
0304fffcf0f5f4f2fd
010103ff0102010100
01010301fcfffefa02
0200fe02fc00fa0002
010204000103030200
0703fcfff6fb010307
05010000fcff04f801
f904f9f6f9f9fdf3fd
ff02ff04fff903f4f7
01000001ff00ffff02
fe0101fcf5fcfe0afd
01fe0306090703000a
01fcff04070602ff02
010003fdf8fef9fb00
fd01fb040303050906
ff00fffffd02fd0401
fefd02020102f80202
fe02fe020001020101
f0f1f5060100161a0b
00fd03020004010001
01fd0004fffffd04fd
fdff01f8f6fd00ff00
00fbfffefa0100ff01
040704050605030603
0101ff050500020603
010303030a06020803
fd03fe020e010005fe
0202020303030203ff
000203000505010004
fe0100fe0401fd0001
f8fbfbfe0904010705
0503fffeff00fefe03
feff00ff0000ff0201
020201fef9fbfef9fc
fd01fe0105fffa02fb
fd000201fd01fffc01
020403fd010501fffe
ff02010103fffdffff
01ff01fefe0501ff03
03fefe06eefe0201ff
0a010007f4f8ff11fb
fdfe00fefffd00ffff
fc02fdf94e18f80701
0100fc0004fdff0402
fd0100fefefeff00fc
01f8fa06f9fb01fb01
fa0403fefd09010708
03fd01fefdfe0101ff
ff0502fcfb01fdfb00
03030303090600ffff
020afd060803f9fbfb
06ffff03fe0000fe04
fe0706010906050400
f5f3f2040900fdf7fd
070708060306040204
fbfffcfffe01fe0002
040002fc0204fdff02
0004ff000102fc00fe
040701080a05090e03
0700ff04fe04fefe05
03fe03ff040103ff01
05ff00fefc01010000
0202ff02ff00000203
ffff00ff0005010301
00000402fe05fdfc05
01ff0001ff07000301
ff020000fd02fbfd02
00f7f6f9f2effaf5fd
040504030304fc0404
fd01000000fe0305fd
f804fbf5f8f7f801ff
000000050206020406
0303fc0000fdfc0c04
04000306020301fa06
fff8fbf9f3fa02faf8
fefcfef8fcfd01f4f6
02fefd040201020309
f7fdfcf807fafbfeff
efe7e9dfdbe1f7f0f1
05ff06fcfd00fefdfd
03fb0101fdfffe00ff
f8f9080901080300fd
000201000100fcfeff
0206fe01fd0002fffe
0602010400020303fe
fffdff01ff04fffcff
000200fd0102fc0601
00fffe000206ff0405
050304050307030705
0000ff040602010404
010505040507010102
ffff01fefcfbfff9fe
000100010105ff0403
0001010205020005ff
fdfbfa020100000401
ff000001ff03fc02ff
02fbfdfdfefe040307
02ff00010305fe02ff
fdfb00fafbfefefc00
05ffff02fd01fffffd
fcfafc01fbfdfcfcfc
0402fff6eff8f5f0f6
ff00fdfefffdff0103
fffc00fd000800fdfa
01020a02fcfdfd0105
fefffffe05fa00fb06
0101fd03f3fb020104
0501fe03fbf80503fa
fc03050002ffff0006
01fcf903f0f2feff00
ff01fc0100fe00fffd
0502fc02fdfd000304
03fefcfb02fefe0303
00fefa030601fffefb
030504f902fffcfefe
0001fbfffd020703ff
fff6fcfaf801fbfcff
070a000308fc010303
f5f6f3ebede7f0f3ef
03f003fae901f9e500
020400020200fffe00
00effbfcf402f9f400
02010204fe04ff0100
01fe01fdf8fc00fbfe
010601060603020804
02fd03fbf3fefefafd
