f7f4f4fd0101021316
f6f5f3fcfafc0e1817
faf9fdfffafc080801
030307f9f7f90900fd
020bf9faf1fb0bf40a
02fcfbfffefb030404
16231efd0305d6d1cb
f7f2f4130d13f8fafd
feff06fff7fbfff6fa
fbfd01f9f903fcfe03
fbfd01f7eff703f9fc
000908f8f4f801f5f5
00ffff000200fffffc
ff06f9fa010c010e11
fcfc01fcfefffdfefe
00ff05faf400fefa03
0207eff6e91bfe0efb
fc04040200f5f0fe0b
0403fa07fefc0601fe
0303f90600fa0a05fd
1cf4e3f6d6fdea0b14
fff304fd0dfe01fd00
e603120e02ec06eee7
fce6fcf20f121607e9
fdfdfbfcfbf8fbfbfa
04020501fd03040100
fffefffffefffffe00
010102030104fffcfe
01000201ff06fc02fd
ff0402030101fafafb
03060201fffd0005fe
f6f4f3f6f1f1f8f6f3
01fdfe0103fe000801
fffffdfcfefdfffefb
0100ff0100ff0001ff
0000ff000000000000
fffbfffe0001010202
ff020203030100fcfc
0201fe0400fd01fdff
01ff01030300ff0202
03f40f03df14080afe
080ff7f01802fbfd0e
0208fcfd05fef40501
030afbfafffdf90401
d61affcdf12009d324
000df902f30c05fb03
f0e7f3f5edc10b0ce6
fafb150cd213040cf1
05fd0cf0f612edf51a
0705f30309f60906fd
fcfb0104fd030b0303
02fafb09f6fa110000
f8f9f8f7f9f7f7faf9
03fc0200f8ff04fe01
fbf9f5fffbf7fdfcf9
e40516dd0d17defd13
08f9fafef3fa1dfbe5
fae3e91ee9d83320fd
080309fc010beaf201
0cfa0901fa0dedf403
f41613eefb0ff2e401
06e3fe11fbe8051700
020a0fe7f908ebf0ef
f4d8dc23e7de3431ff
0207fe0705f5f6fdf0
07ff0504fbfef9e9fb
d8d2d4fbe8fd374c48
03ff08faf70408eaf3
0102fdfbf7f8020406
dde8dafd0107fd1107
f3fef8effef9fefafd
fdfaf9fffcfe090309
000200010000020201
00fe010101ffff0000
030201030401020402
010000ff00ff000000
08feff0c0f0e030d0b
000100ff0201ff0100
02000202ff01020202
fffdfc070b0a000a07
07f0fbeee7eef2f9fd
fddb0a1442fafdd2f5
0215e8fd9c23fd180f
1309ecd698e6081e0d
080701fcfa0100fefe
1100efeff4261500ef
f6eb270a35f212d303
02fe06fcff03000205
ff0001fffbfffefbf9
02040501ff06fffe02
fdfcff080207fffeff
030301020002ff03ff
fffeff01fdff00fdfc
00feff00fdfffe01fe
fefcff00fdfe090701
00000102ff01030001
fefcff02ff00fe01ff
0001ff050202040304
01ff02030004030901
020401ff0805fe0607
030503fdfefefefefd
ff03fffe02fcfe02ff
0306ff040b02fdfe01
020303fefffffdfefe
0609e619f520f3f508
e21ff7f916f608c60f
e036f0efef2904cf28
13c90ce928f8ff06ee
0200f5fb0206fbfa08
f7eff406d3ee01f7ef
39c00b180de1e845d2
fb0ef4f8010504fa06
fefc08f8ecef01f5f2
07fe01fff3f2090709
09060905fe0907020b
02d5eef792a205d0d0
0806f70605f40403f7
09040907000b0c0106
06030e0af9090cff05
050405fefd02f9fe05
f6e5090ce8e80e21ff
00d8f707efe50600e7
f3ebed22f6e3180b04
02dcfd09d8dc0d24fc
f909060307fde50402
00030516f9f519fd09
f9f2ef27eaef11170f
f6f0fc18f5ec0d15fe
