fef0e80b0a0efffa02
f1f9edf5fff8000c01
d8d19e1b25f12a3b12
d6cd84304bff123f19
070a0a0e0d05120909
1308f6101b00f91b00
0c0411070813080419
f9f707090110fbf800
04020102fe0003ff01
fdfdfe0100000001fc
060c070f160e080d0a
01fbfe00f7fd03fcff
010100010101ff00ff
ff0301030100010402
fdfefeffffffff00ff
02fd01fdf7ff02fd03
de2f034318cc0fcde9
1b14f814ffe4f8eaea
eefbfafafefd100506
f3000005fff710ff05
0613f51cf7ee08e902
f3070f100bf803f4f8
d7f001e1fe14040e20
4118e61ad3f0e5ef06
11f9ee0506f9f8030f
ef1e14f4ee17fffdf8
04000702fd0202fbf6
03fd0103020405fdf4
1fe4d63702c81f1beb
fd0bfcfaf90502f903
f0f0fbeae610fff704
141bf8e80312e9ec19
0dfff5fdeeec00f912
eae9f7eaee13fa0727
0e100c0202f707f5e1
fefd030001ff0a03f1
29270c0d15d6eed1b2
fbe4f3f5f0010c131d
fffd0003effffdeefe
efe9eddbda02153445
040501060603060505
0103fe030602040400
05f9f80c03ff05050b
f8efec1b1c0c0b1a16
fffc0000fcfefe00fe
ffff010807fa0104fc
fffdfffefdfe00fefe
01fe01fdf5fc00f9fd
04fdfa0204ff020202
020104030307020206
0401fd0302fc0806fd
0501ff01fdf90b06fd
fcfa0801fe08fef5fe
0501fbfbfbfafc0005
faf9fc01fdfff0ef06
02000301fe00fffc04
050702060100020000
ffff030100040a0102
fcfe09f6f3fd00f6ff
e6e0eee1d5e2efdae1
fdfdfefcfefcfdfbff
fffcfdfafdfbfafafb
fffbfafefcfb000000
05020503fcff02fafb
0208f8fdfdf60200fe
0104ed0408e1ff08f0
f3fafef7fdf2ebfbee
fe0af00206dffb09e8
082433d1ecebdbf3eb
f900fdfb01fef700ff
f4f9fef0fdfaeaf0f7
0b171efd0f07fe1009
000100010101010200
0000ff01ffffff0000
010101010102000101
0000ffff0001000100
02fd03fcf5fe03fc03
00010001ff00000100
00ff0000ffff010001
ffeffaefd9ebf6e8f5
10edfdf1e200fcfcfc
f3f0efe5190006f308
1e16054be4dbfee3eb
053e0112cbef01d8fd
edfe0908fe0103ff04
fe01fc07e4f80b02f6
06da04d61902ea0608
060b0116f1f4fced03
090af7e9160100e6fc
f3daebff10cb09030d
06e2ff0219e61101f4
0625f2c8e807f5dd03
f5070ffbf0fd15fdf8
0ce6e3f5e8110af5ec
e8371cc2d761f4cd0c
fc0e02f8fc09fff9fc
0ceef8fdd3f1fcf716
03e0faf7d5f7011e18
f2fdf7f11407040aff
0be2f602e6fbf3f307
1604050f0106f8e8e8
f1f9f5e6edf9060d13
d8e6f0e5f32d2a3647
06f7fffcf40bfe0008
0100fe000202010201
0000ffff01ff000000
000100010201fe0201
ff00fffe00ff000100
0a1018eccef4fed6e8
ff0100010302000201
010301010203000202
0208020309090b0a03
f3f3fcf0f5f2f0eff4
f7f3f1e5eee9e4ebe8
0505070000fa0e0308
edecede4f0e5dfe7ea
fd00fdfe0303fc0406
10fbfffc030203fc06
08ff03fc03fa0b0705
fb0100fe0504fd0405
fffd00ff03040501fe
ff02feff02ff00ff02
000303000504ff0001
fefffffe0300000002
fffcf601fdf7fcfffb
010203030402010002
020202020106030402
fbfaf3fdfdf7fcfff4
