2db21560b3db3c09d7
ffc24535a40f22f9f9
e3f43af8d81ff5fd0c
000000000000000000
000000000000000000
000000000000000000
000000000000000000
000000000000000000
2610d93afdc925f5da
1810df34fecc1ffadf
0e10e51e04de1101ec
000000000000000000
000000000000000000
000000000000000000
000000000000000000
000000000000000000
dad0e0ff00fd213722
e1d3e40101fb19361d
ece2ed0404ff0c2011
000000000000000000
000000000000000000
000000000000000000
000000000000000000
000000000000000000
e7fe25d1f236de0020
e9001dcef338dc0223
e80417dbfc26e60615
000000000000000000
000000000000000000
000000000000000000
000000000000000000
000000000000000000
faeafaefe9eff1f3f3
06fe07040407010c0a
0d06070c0807060d08
000000000000000000
000000000000000000
000000000000000000
000000000000000000
000000000000000000
351f08c8c2ed0e140b
2f1b04c1bfed171e10
1d0a00d6d7f711150f
000000000000000000
000000000000000000
000000000000000000
000000000000000000
000000000000000000
1f3b25ffff09e1c5d6
14331901010ee6cae0
0e231201030decdae8
000000000000000000
000000000000000000
000000000000000000
000000000000000000
000000000000000000
fbf7ff01f8fa020501
faf3f9fbf3f5f1f8f9
0c0d090f120d000c0b
000000000000000000
000000000000000000
000000000000000000
000000000000000000
000000000000000000
